[PAD]	0
[UNK]	0
[BOS]	0
▁t	-0
he	-1
▁a	-2
in	-3
▁the	-4
▁o	-5
▁w	-6
re	-7
▁s	-8
nd	-9
er	-10
ha	-11
▁b	-12
is	-13
▁of	-14
ou	-15
on	-16
it	-17
ed	-18
en	-19
▁f	-20
▁c	-21
▁m	-22
▁and	-23
▁to	-24
es	-25
or	-26
▁p	-27
ing	-28
▁in	-29
▁d	-30
ar	-31
ll	-32
at	-33
an	-34
as	-35
▁l	-36
▁h	-37
▁n	-38
om	-39
▁he	-40
ic	-41
▁ha	-42
▁be	-43
le	-44
▁I	-45
▁g	-46
▁e	-47
hat	-48
ot	-49
ion	-50
st	-51
ut	-52
ow	-53
ve	-54
ent	-55
al	-56
se	-57
ly	-58
▁T	-59
im	-60
▁re	-61
▁th	-62
ce	-63
ld	-64
id	-65
▁that	-66
▁was	-67
▁on	-68
gh	-69
▁wh	-70
▁it	-71
ir	-72
▁u	-73
▁y	-74
et	-75
ver	-76
ith	-77
ur	-78
▁for	-79
ay	-80
▁"	-81
▁as	-82
▁with	-83
ro	-84
▁his	-85
▁is	-86
▁A	-87
▁S	-88
ct	-89
▁we	-90
ad	-91
▁st	-92
ri	-93
▁you	-94
ch	-95
▁The	-96
am	-97
her	-98
▁an	-99
▁M	-100
ght	-101
▁C	-102
ra	-103
▁not	-104
--	-105
▁at	-106
ter	-107
▁H	-108
▁had	-109
ill	-110
▁B	-111
if	-112
oo	-113
il	-114
▁se	-115
ould	-116
ain	-117
▁su	-118
ich	-119
▁by	-120
ke	-121
▁her	-122
ess	-123
▁de	-124
red	-125
rom	-126
▁which	-127
pe	-128
ore	-129
ul	-130
▁con	-131
all	-132
▁me	-133
ation	-134
▁W	-135
ge	-136
th	-137
▁or	-138
▁him	-139
▁so	-140
us	-141
▁P	-142
qu	-143
▁have	-144
ac	-145
and	-146
▁from	-147
est	-148
res	-149
▁ex	-150
▁v	-151
ome	-152
▁but	-153
▁L	-154
▁all	-155
▁sa	-156
nt	-157
ight	-158
▁ne	-159
▁1	-160
▁_	-161
▁this	-162
ers	-163
▁k	-164
ol	-165
ous	-166
ant	-167
ble	-168
ist	-169
pp	-170
▁were	-171
▁sh	-172
▁G	-173
▁F	-174
os	-175
▁she	-176
▁are	-177
▁whe	-178
em	-179
ust	-180
▁they	-181
▁r	-182
▁up	-183
▁my	-184
um	-185
ard	-186
▁who	-187
our	-188
ie	-189
▁D	-190
."	-191
art	-192
▁E	-193
ate	-194
▁man	-195
▁al	-196
ig	-197
▁com	-198
▁their	-199
▁one	-200
▁do	-201
ong	-202
el	-203
ast	-204
▁int	-205
▁them	-206
iv	-207
very	-208
▁R	-209
ive	-210
▁pro	-211
ame	-212
▁O	-213
ind	-214
ound	-215
pt	-216
un	-217
out	-218
▁no	-219
▁N	-220
ort	-221
▁wor	-222
ood	-223
ity	-224
han	-225
lf	-226
▁le	-227
▁been	-228
,"	-229
ak	-230
od	-231
ell	-232
▁ab	-233
ies	-234
ost	-235
▁would	-236
ough	-237
▁said	-238
▁He	-239
▁there	-240
ure	-241
ther	-242
reat	-243
▁pl	-244
▁kn	-245
ry	-246
▁J	-247
op	-248
▁will	-249
ect	-250
own	-251
▁out	-252
itt	-253
▁ar	-254
one	-255
ck	-256
ff	-257
▁when	-258
ish	-259
ment	-260
ine	-261
hed	-262
ag	-263
▁un	-264
▁j	-265
cc	-266
ide	-267
▁fe	-268
▁fa	-269
ose	-270
ond	-271
▁qu	-272
ci	-273
au	-274
▁sp	-275
ook	-276
▁more	-277
ass	-278
ence	-279
▁ag	-280
ance	-281
ven	-282
▁li	-283
▁It	-284
▁tim	-285
▁other	-286
ake	-287
self	-288
able	-289
per	-290
ru	-291
▁some	-292
▁go	-293
▁can	-294
ack	-295
▁any	-296
▁im	-297
ice	-298
▁has	-299
▁if	-300
▁ad	-301
▁into	-302
▁en	-303
▁(	-304
pl	-305
▁tw	-306
▁us	-307
end	-308
▁dis	-309
▁am	-310
ab	-311
▁cl	-312
ally	-313
▁ro	-314
ount	-315
ord	-316
▁than	-317
are	-318
ng	-319
▁2	-320
ud	-321
ade	-322
▁what	-323
▁ch	-324
ire	-325
▁could	-326
ove	-327
ite	-328
ions	-329
fter	-330
ary	-331
fore	-332
urn	-333
ree	-334
▁your	-335
▁very	-336
▁its	-337
ars	-338
ber	-339
▁time	-340
▁our	-341
ays	-342
▁sha	-343
ep	-344
wn	-345
ans	-346
▁great	-347
ress	-348
▁per	-349
ated	-350
age	-351
▁upon	-352
▁br	-353
ings	-354
nder	-355
▁pr	-356
other	-357
ace	-358
ered	-359
▁'	-360
▁Th	-361
ought	-362
▁Mr	-363
▁over	-364
ap	-365
ile	-366
▁part	-367
▁And	-368
▁In	-369
▁only	-370
oll	-371
ittle	-372
ved	-373
ious	-374
▁bl	-375
▁about	-376
▁But	-377
▁pre	-378
ere	-379
▁now	-380
▁should	-381
▁like	-382
ach	-383
▁know	-384
▁gr	-385
▁then	-386
▁tr	-387
▁“	-388
oy	-389
▁again	-390
▁off	-391
ied	-392
▁fl	-393
bl	-394
▁little	-395
▁after	-396
?"	-397
▁did	-398
tain	-399
hing	-400
ife	-401
av	-402
ick	-403
▁hand	-404
▁cha	-405
▁too	-406
uch	-407
▁see	-408
ink	-409
▁made	-410
ty	-411
▁two	-412
▁may	-413
cl	-414
▁po	-415
ather	-416
▁pe	-417
▁St	-418
▁fir	-419
▁[	-420
ild	-421
ull	-422
▁thr	-423
▁rem	-424
▁des	-425
ward	-426
ue	-427
ful	-428
▁V	-429
ne	-430
▁under	-431
▁res	-432
▁ye	-433
▁before	-434
▁K	-435
▁these	-436
ark	-437
ness	-438
▁ri	-439
▁such	-440
▁look	-441
ign	-442
▁how	-443
int	-444
▁good	-445
▁must	-446
▁long	-447
▁Y	-448
▁cont	-449
ip	-450
ise	-451
▁spe	-452
we	-453
▁first	-454
▁comp	-455
ER	-456
_,	-457
▁much	-458
▁where	-459
ian	-460
▁sc	-461
▁down	-462
▁ra	-463
▁bet	-464
▁3	-465
hen	-466
▁bec	-467
ons	-468
ran	-469
▁comm	-470
old	-471
▁every	-472
oss	-473
og	-474
ia	-475
▁|	-476
ath	-477
ft	-478
ory	-479
ces	-480
ition	-481
▁sm	-482
iss	-483
orn	-484
▁men	-485
▁acc	-486
▁imp	-487
▁cons	-488
▁ob	-489
▁old	-490
▁ind	-491
▁most	-492
iz	-493
ater	-494
▁own	-495
▁well	-496
._	-497
▁even	-498
▁day	-499
▁att	-500
ew	-501
▁aw	-502
ave	-503
ced	-504
ily	-505
ady	-506
ens	-507
▁say	-508
!"	-509
▁work	-510
ction	-511
▁never	-512
hes	-513
ations	-514
man	-515
▁pres	-516
▁those	-517
▁18	-518
ors	-519
ult	-520
so	-521
ical	-522
▁gl	-523
ict	-524
▁pass	-525
▁She	-526
▁being	-527
▁through	-528
ouse	-529
ps	-530
▁way	-531
▁app	-532
ener	-533
iff	-534
ren	-535
▁Ch	-536
▁wr	-537
▁ap	-538
led	-539
▁came	-540
▁might	-541
▁ent	-542
▁himself	-543
ving	-544
▁think	-545
ract	-546
▁life	-547
▁seem	-548
land	-549
ried	-550
▁form	-551
▁many	-552
oth	-553
▁bel	-554
ever	-555
▁come	-556
▁back	-557
▁found	-558
ves	-559
▁call	-560
▁ey	-561
te	-562
The	-563
▁ser	-564
▁here	-565
ase	-566
▁let	-567
▁sl	-568
▁thought	-569
▁shall	-570
▁same	-571
▁rep	-572
ked	-573
▁dist	-574
▁make	-575
orm	-576
▁fri	-577
ause	-578
less	-579
ject	-580
▁without	-581
igh	-582
les	-583
pect	-584
▁just	-585
----	-586
▁ear	-587
aw	-588
▁sub	-589
▁count	-590
ents	-591
▁This	-592
atter	-593
ock	-594
▁beg	-595
▁op	-596
ible	-597
▁em	-598
ix	-599
▁last	-600
the	-601
ople	-602
ged	-603
ished	-604
▁ke	-605
▁4	-606
ared	-607
ower	-608
▁rec	-609
▁They	-610
▁word	-611
▁end	-612
▁ret	-613
▁car	-614
ial	-615
ollow	-616
ang	-617
▁rel	-618
▁head	-619
ened	-620
sel	-621
omet	-622
▁place	-623
▁U	-624
▁still	-625
▁inf	-626
▁supp	-627
▁ac	-628
▁There	-629
ted	-630
▁people	-631
ertain	-632
▁wom	-633
▁while	-634
▁inst	-635
▁We	-636
▁appe	-637
▁away	-638
▁turn	-639
▁went	-640
▁right	-641
▁co	-642
▁nat	-643
▁diff	-644
▁get	-645
▁ord	-646
▁also	-647
▁har	-648
▁friend	-649
▁new	-650
ince	-651
▁tak	-652
▁*	-653
und	-654
▁sec	-655
▁tra	-656
▁cr	-657
▁far	-658
▁take	-659
▁follow	-660
▁As	-661
▁reg	-662
ks	-663
ates	-664
▁cour	-665
ently	-666
ined	-667
cess	-668
▁young	-669
hy	-670
▁pers	-671
ual	-672
▁arm	-673
ib	-674
uth	-675
ple	-676
ited	-677
▁years	-678
▁exp	-679
▁te	-680
▁set	-681
▁child	-682
not	-683
▁eyes	-684
du	-685
.,	-686
▁house	-687
▁giv	-688
▁sur	-689
TER	-690
mer	-691
▁three	-692
▁bo	-693
▁Eng	-694
ret	-695
▁poss	-696
▁though	-697
vers	-698
▁mar	-699
▁heart	-700
▁war	-701
ont	-702
▁put	-703
cept	-704
rib	-705
▁yet	-706
ope	-707
▁ev	-708
▁ever	-709
ither	-710
li	-711
oc	-712
ss	-713
▁another	-714
▁against	-715
▁gra	-716
▁left	-717
ular	-718
▁God	-719
▁somet	-720
▁occ	-721
HE	-722
▁conf	-723
▁gener	-724
ner	-725
▁night	-726
▁ass	-727
RE	-728
▁inc	-729
▁ext	-730
▁once	-731
ween	-732
▁tell	-733
ool	-734
▁ref	-735
▁act	-736
▁disc	-737
▁find	-738
▁light	-739
air	-740
▁5	-741
ows	-742
▁At	-743
ways	-744
ning	-745
▁few	-746
▁ple	-747
AL	-748
ON	-749
▁love	-750
get	-751
..	-752
ins	-753
▁nothing	-754
ph	-755
▁want	-756
▁each	-757
▁between	-758
▁world	-759
▁pur	-760
▁mind	-761
▁lar	-762
cy	-763
▁face	-764
▁unt	-765
▁chan	-766
▁near	-767
ived	-768
ody	-769
▁give	-770
ail	-771
rew	-772
ures	-773
its	-774
sw	-775
ale	-776
har	-777
ised	-778
ier	-779
osed	-780
gg	-781
▁kind	-782
ired	-783
▁adv	-784
▁saw	-785
▁took	-786
aut	-787
ts	-788
▁rest	-789
den	-790
erm	-791
ters	-792
▁When	-793
▁gu	-794
ffect	-795
▁water	-796
ting	-797
▁pu	-798
▁add	-799
▁father	-800
▁side	-801
ec	-802
▁always	-803
▁return	-804
▁happ	-805
00	-806
als	-807
▁name	-808
▁inter	-809
▁read	-810
▁called	-811
ief	-812
▁stre	-813
most	-814
▁His	-815
▁mom	-816
xt	-817
▁things	-818
thing	-819
rist	-820
▁You	-821
▁country	-822
▁If	-823
oot	-824
▁str	-825
▁certain	-826
ee	-827
att	-828
▁ins	-829
apt	-830
.”	-831
aught	-832
▁present	-833
▁whole	-834
vel	-835
aking	-836
▁sw	-837
ross	-838
▁among	-839
▁small	-840
ating	-841
▁mon	-842
▁don	-843
▁feel	-844
alk	-845
▁6	-846
aid	-847
ton	-848
▁An	-849
iness	-850
▁For	-851
▁On	-852
▁hands	-853
ention	-854
ched	-855
ten	-856
▁bre	-857
ute	-858
here	-859
▁nor	-860
selves	-861
▁soon	-862
▁bu	-863
▁To	-864
▁fell	-865
ason	-866
▁sent	-867
▁min	-868
▁seen	-869
▁home	-870
▁both	-871
ense	-872
▁Then	-873
▁lo	-874
▁having	-875
▁THE	-876
wards	-877
▁answ	-878
▁fam	-879
irl	-880
▁point	-881
uring	-882
ully	-883
ments	-884
▁dra	-885
▁half	-886
▁whom	-887
▁Jo	-888
▁cle	-889
▁Mrs	-890
▁cond	-891
▁Br	-892
▁done	-893
up	-894
▁care	-895
),	-896
▁hum	-897
ities	-898
▁land	-899
▁num	-900
▁moment	-901
▁art	-902
▁because	-903
aster	-904
▁thing	-905
eth	-906
▁fact	-907
med	-908
me	-909
▁sat	-910
ene	-911
▁seemed	-912
erest	-913
vern	-914
▁looked	-915
▁hour	-916
▁less	-917
ET	-918
▁inv	-919
row	-920
,--	-921
▁told	-922
IN	-923
▁power	-924
▁days	-925
▁room	-926
▁del	-927
sh	-928
▁however	-929
▁heard	-930
ern	-931
act	-932
outh	-933
▁large	-934
▁boy	-935
ub	-936
▁belie	-937
▁better	-938
.'	-939
▁cur	-940
pped	-941
▁dou	-942
▁So	-943
▁woman	-944
▁use	-945
▁best	-946
▁course	-947
▁matter	-948
oun	-949
▁asked	-950
▁i	-951
▁mother	-952
▁fore	-953
▁sil	-954
▁wind	-955
ield	-956
_.	-957
▁hard	-958
▁che	-959
▁Ar	-960
lish	-961
▁going	-962
▁stand	-963
az	-964
ately	-965
ution	-966
iet	-967
▁suff	-968
amp	-969
▁def	-970
ob	-971
▁pleas	-972
▁got	-973
▁tru	-974
ey	-975
▁tre	-976
▁Mar	-977
▁ste	-978
ably	-979
▁high	-980
▁interest	-981
.--	-982
ger	-983
▁Christ	-984
▁bro	-985
▁perf	-986
▁sim	-987
▁girl	-988
▁rece	-989
▁remain	-990
ured	-991
▁vis	-992
▁sk	-993
▁enough	-994
You	-995
▁knew	-996
▁Al	-997
ines	-998
elt	-999
▁taken	-1000
▁Ind	-1001
ird	-1002
ants	-1003
ling	-1004
▁almost	-1005
ider	-1006
▁det	-1007
▁17	-1008
▁four	-1009
▁el	-1010
▁given	-1011
ians	-1012
ug	-1013
▁es	-1014
▁does	-1015
owed	-1016
▁8	-1017
▁beaut	-1018
ison	-1019
hn	-1020
▁quite	-1021
▁col	-1022
osition	-1023
▁Lord	-1024
ustr	-1025
ote	-1026
ceed	-1027
▁words	-1028
▁contin	-1029
▁inde	-1030
▁dep	-1031
▁That	-1032
▁hor	-1033
▁adm	-1034
▁De	-1035
▁wa	-1036
▁sy	-1037
▁open	-1038
▁until	-1039
▁publ	-1040
aring	-1041
▁gave	-1042
oice	-1043
▁mo	-1044
▁person	-1045
haps	-1046
▁dire	-1047
▁brought	-1048
,”	-1049
urch	-1050
any	-1051
▁something	-1052
▁cent	-1053
▁serv	-1054
▁morn	-1055
AN	-1056
▁keep	-1057
▁death	-1058
ury	-1059
▁Wh	-1060
.]	-1061
▁mil	-1062
▁whose	-1063
▁law	-1064
▁Sp	-1065
▁fr	-1066
▁What	-1067
▁door	-1068
AR	-1069
▁Re	-1070
atch	-1071
ific	-1072
oud	-1073
ives	-1074
▁quest	-1075
▁opp	-1076
▁char	-1077
▁prop	-1078
▁differe	-1079
▁No	-1080
▁dec	-1081
arn	-1082
gin	-1083
men	-1084
ages	-1085
unt	-1086
ser	-1087
ident	-1088
▁Pr	-1089
▁bus	-1090
▁ele	-1091
▁since	-1092
▁others	-1093
▁themselves	-1094
▁pri	-1095
▁7	-1096
▁=	-1097
ets	-1098
▁hel	-1099
▁full	-1100
ually	-1101
▁morning	-1102
▁round	-1103
▁year	-1104
▁need	-1105
▁order	-1106
ches	-1107
▁ed	-1108
▁cor	-1109
▁plac	-1110
ank	-1111
▁Miss	-1112
undred	-1113
ism	-1114
ery	-1115
▁white	-1116
ided	-1117
EN	-1118
oney	-1119
▁cannot	-1120
▁John	-1121
▁charact	-1122
ued	-1123
▁bri	-1124
ides	-1125
iew	-1126
ung	-1127
▁fall	-1128
▁spir	-1129
▁feet	-1130
▁book	-1131
▁hon	-1132
irc	-1133
▁const	-1134
bt	-1135
ering	-1136
de	-1137
ressed	-1138
aim	-1139
oul	-1140
▁necess	-1141
ALL	-1142
▁Q	-1143
ached	-1144
▁turned	-1145
of	-1146
▁prom	-1147
▁rather	-1148
▁mean	-1149
▁pol	-1150
to	-1151
▁fin	-1152
▁hundred	-1153
enty	-1154
▁ill	-1155
▁poor	-1156
oke	-1157
▁est	-1158
▁used	-1159
ken	-1160
▁next	-1161
▁sun	-1162
nce	-1163
fully	-1164
gether	-1165
▁together	-1166
▁real	-1167
,'	-1168
▁case	-1169
▁king	-1170
ative	-1171
iting	-1172
▁dark	-1173
used	-1174
▁Be	-1175
▁subject	-1176
▁16	-1177
▁Un	-1178
▁till	-1179
▁began	-1180
It	-1181
▁underst	-1182
ude	-1183
▁above	-1184
▁ide	-1185
REE	-1186
OR	-1187
ham	-1188
▁felt	-1189
▁aff	-1190
mon	-1191
ETTER	-1192
▁fire	-1193
▁strong	-1194
▁gent	-1195
▁sure	-1196
▁LETTER	-1197
ances	-1198
hil	-1199
empt	-1200
▁often	-1201
▁English	-1202
▁thus	-1203
▁known	-1204
day	-1205
▁true	-1206
ient	-1207
ash	-1208
range	-1209
pr	-1210
▁myself	-1211
▁met	-1212
{~	-1213
~}	-1214
▁pain	-1215
ah	-1216
ES	-1217
▁consider	-1218
ister	-1219
▁says	-1220
▁play	-1221
▁King	-1222
▁swe	-1223
ott	-1224
▁All	-1225
▁exc	-1226
▁mem	-1227
cted	-1228
br	-1229
▁var	-1230
▁air	-1231
▁New	-1232
▁town	-1233
▁stood	-1234
▁voice	-1235
▁circ	-1236
REEK	-1237
HA	-1238
▁SM	-1239
▁sing	-1240
▁wife	-1241
▁reason	-1242
▁mod	-1243
▁passed	-1244
GREEK	-1245
fort	-1246
ert	-1247
▁ground	-1248
imes	-1249
▁son	-1250
▁With	-1251
▁children	-1252
▁short	-1253
▁X	-1254
▁along	-1255
▁15	-1256
▁Com	-1257
▁second	-1258
▁Sir	-1259
▁prin	-1260
▁wond	-1261
iled	-1262
▁trans	-1263
▁lay	-1264
▁character	-1265
▁hold	-1266
▁produ	-1267
▁dr	-1268
▁offic	-1269
▁means	-1270
▁SMALL	-1271
▁six	-1272
▁par	-1273
▁run	-1274
err	-1275
▁effect	-1276
▁speak	-1277
▁Is	-1278
▁sle	-1279
▁sever	-1280
).	-1281
uc	-1282
ying	-1283
read	-1284
ended	-1285
meric	-1286
▁sum	-1287
be	-1288
▁body	-1289
▁money	-1290
▁repl	-1291
rench	-1292
▁hope	-1293
▁during	-1294
▁sign	-1295
uss	-1296
▁help	-1297
ges	-1298
ility	-1299
▁auth	-1300
ready	-1301
▁herself	-1302
▁gentle	-1303
▁close	-1304
▁doubt	-1305
owing	-1306
ized	-1307
▁times	-1308
▁tri	-1309
▁abs	-1310
▁prov	-1311
pend	-1312
▁succ	-1313
cial	-1314
▁requ	-1315
▁obser	-1316
▁within	-1317
overed	-1318
▁prev	-1319
illed	-1320
ural	-1321
▁believe	-1322
▁sch	-1323
▁9	-1324
ames	-1325
by	-1326
▁dear	-1327
iter	-1328
▁beh	-1329
▁By	-1330
▁expl	-1331
▁Le	-1332
▁anything	-1333
▁general	-1334
▁fur	-1335
▁div	-1336
▁cap	-1337
king	-1338
▁least	-1339
▁OF	-1340
▁Americ	-1341
▁question	-1342
▁object	-1343
▁itself	-1344
▁dev	-1345
▁Cl	-1346
ime	-1347
▁Sc	-1348
▁appear	-1349
▁meet	-1350
uck	-1351
▁How	-1352
use	-1353
▁number	-1354
ousand	-1355
dden	-1356
▁lead	-1357
▁nature	-1358
▁gre	-1359
▁10	-1360
eng	-1361
ards	-1362
ric	-1363
▁equ	-1364
▁several	-1365
▁unc	-1366
▁19	-1367
▁already	-1368
▁alone	-1369
▁eas	-1370
▁perhaps	-1371
oint	-1372
ius	-1373
▁black	-1374
▁proper	-1375
itted	-1376
aj	-1377
▁bra	-1378
▁Pro	-1379
peri	-1380
iful	-1381
▁mis	-1382
▁mer	-1383
▁import	-1384
▁England	-1385
▁indeed	-1386
son	-1387
▁pat	-1388
▁stru	-1389
▁deep	-1390
▁12	-1391
▁common	-1392
tern	-1393
▁thousand	-1394
▁success	-1395
▁hear	-1396
▁either	-1397
▁different	-1398
▁Her	-1399
▁human	-1400
▁therefore	-1401
▁public	-1402
▁account	-1403
ists	-1404
ety	-1405
▁sudden	-1406
aint	-1407
▁earth	-1408
▁lau	-1409
▁held	-1410
▁ten	-1411
▁prof	-1412
ature	-1413
▁wood	-1414
▁start	-1415
What	-1416
▁brother	-1417
▁dead	-1418
aptain	-1419
▁French	-1420
▁respect	-1421
▁Con	-1422
▁mount	-1423
▁city	-1424
▁desc	-1425
▁gone	-1426
▁state	-1427
▁command	-1428
▁possess	-1429
une	-1430
▁bur	-1431
▁appro	-1432
▁hist	-1433
IT	-1434
▁author	-1435
▁sea	-1436
cha	-1437
▁cried	-1438
▁One	-1439
▁women	-1440
▁spirit	-1441
▁dri	-1442
llustr	-1443
▁ir	-1444
ination	-1445
gr	-1446
▁conc	-1447
▁manner	-1448
▁bed	-1449
▁vol	-1450
▁view	-1451
ane	-1452
▁pret	-1453
▁thou	-1454
▁leave	-1455
▁eng	-1456
▁fort	-1457
▁letter	-1458
▁Par	-1459
iving	-1460
▁became	-1461
▁fav	-1462
aven	-1463
ices	-1464
▁bar	-1465
▁fre	-1466
par	-1467
~}{~	-1468
▁port	-1469
ats	-1470
io	-1471
▁comple	-1472
▁friends	-1473
bit	-1474
ax	-1475
▁sn	-1476
▁soul	-1477
▁become	-1478
▁Nor	-1479
ring	-1480
▁remem	-1481
▁stud	-1482
idence	-1483
▁remark	-1484
iam	-1485
▁val	-1486
cul	-1487
▁tem	-1488
▁sound	-1489
▁talk	-1490
ley	-1491
▁diffic	-1492
▁stra	-1493
▁cut	-1494
ney	-1495
▁My	-1496
IS	-1497
▁ca	-1498
▁replied	-1499
asion	-1500
▁purp	-1501
▁thy	-1502
ream	-1503
▁partic	-1504
▁bring	-1505
▁clear	-1506
cious	-1507
▁coll	-1508
▁possible	-1509
vernment	-1510
▁free	-1511
▁fair	-1512
rance	-1513
▁family	-1514
▁expect	-1515
0,	-1516
▁exam	-1517
▁Will	-1518
alth	-1519
▁truth	-1520
And	-1521
that	-1522
fe	-1523
▁dest	-1524
▁perfect	-1525
ster	-1526
aves	-1527
▁whether	-1528
▁prob	-1529
▁mid	-1530
for	-1531
▁arri	-1532
over	-1533
oon	-1534
▁red	-1535
▁Now	-1536
▁ran	-1537
▁five	-1538
aughter	-1539
ented	-1540
▁mus	-1541
tained	-1542
ics	-1543
ught	-1544
ording	-1545
▁11	-1546
▁mark	-1547
▁jud	-1548
▁live	-1549
▁decl	-1550
▁behind	-1551
▁answered	-1552
▁understand	-1553
▁past	-1554
ising	-1555
▁fear	-1556
▁dro	-1557
▁express	-1558
▁Se	-1559
▁sold	-1560
akes	-1561
▁lost	-1562
▁line	-1563
▁princi	-1564
ues	-1565
▁lady	-1566
Yes	-1567
ony	-1568
rying	-1569
▁wish	-1570
▁wall	-1571
▁except	-1572
oura	-1573
▁road	-1574
▁.	-1575
AT	-1576
rigin	-1577
▁making	-1578
lu	-1579
▁received	-1580
ek	-1581
▁following	-1582
▁gold	-1583
▁ut	-1584
▁towards	-1585
▁mere	-1586
Oh	-1587
ement	-1588
▁business	-1589
▁14	-1590
val	-1591
iously	-1592
olog	-1593
ality	-1594
ork	-1595
▁chief	-1596
0.	-1597
der	-1598
▁horse	-1599
▁regard	-1600
▁bes	-1601
▁ru	-1602
▁month	-1603
ission	-1604
▁et	-1605
--------	-1606
No	-1607
bers	-1608
though	-1609
▁enem	-1610
▁kept	-1611
▁pa	-1612
▁around	-1613
ex	-1614
way	-1615
ining	-1616
▁pract	-1617
iar	-1618
▁fine	-1619
mp	-1620
Illustr	-1621
▁accom	-1622
enn	-1623
▁Ed	-1624
▁sort	-1625
But	-1626
▁13	-1627
▁coming	-1628
▁fig	-1629
▁excl	-1630
▁able	-1631
▁ship	-1632
▁sit	-1633
owers	-1634
▁After	-1635
▁seems	-1636
▁twenty	-1637
arent	-1638
IL	-1639
lled	-1640
attle	-1641
sp	-1642
Illustration	-1643
▁beautiful	-1644
▁foot	-1645
itions	-1646
ript	-1647
wh	-1648
que	-1649
▁blood	-1650
▁Ger	-1651
ron	-1652
▁leg	-1653
▁origin	-1654
ased	-1655
▁disp	-1656
ole	-1657
▁trou	-1658
iment	-1659
▁looking	-1660
ondon	-1661
▁anim	-1662
▁Col	-1663
▁Of	-1664
▁river	-1665
▁low	-1666
▁CHA	-1667
▁begin	-1668
▁cal	-1669
▁hus	-1670
▁why	-1671
▁Char	-1672
▁show	-1673
▁early	-1674
IC	-1675
▁These	-1676
ament	-1677
▁exist	-1678
▁else	-1679
1.	-1680
▁really	-1681
isf	-1682
ones	-1683
gy	-1684
band	-1685
ize	-1686
▁necessary	-1687
▁returned	-1688
▁sol	-1689
cing	-1690
orrow	-1691
▁school	-1692
▁stri	-1693
che	-1694
▁treat	-1695
▁learn	-1696
medi	-1697
▁sight	-1698
ained	-1699
▁conv	-1700
▁ve	-1701
▁quick	-1702
sequ	-1703
▁list	-1704
ots	-1705
ls	-1706
ilt	-1707
▁sir	-1708
▁followed	-1709
▁dang	-1710
▁move	-1711
▁ii	-1712
ctor	-1713
▁pie	-1714
▁cross	-1715
▁result	-1716
cient	-1717
▁evening	-1718
▁dem	-1719
▁wonder	-1720
▁occasion	-1721
▁Ge	-1722
bs	-1723
▁Go	-1724
ship	-1725
▁arms	-1726
▁&	-1727
ection	-1728
▁main	-1729
▁dut	-1730
▁relig	-1731
▁CHAP	-1732
▁later	-1733
▁church	-1734
itude	-1735
▁sal	-1736
▁cause	-1737
aving	-1738
▁story	-1739
co	-1740
ledge	-1741
▁draw	-1742
oor	-1743
▁faith	-1744
▁Ad	-1745
--"	-1746
▁carried	-1747
▁position	-1748
▁mag	-1749
▁acqu	-1750
▁London	-1751
▁‘	-1752
▁miles	-1753
ging	-1754
ases	-1755
▁pay	-1756
dle	-1757
▁worth	-1758
▁cold	-1759
▁II	-1760
▁lad	-1761
He	-1762
▁hur	-1763
utes	-1764
▁thee	-1765
▁ce	-1766
▁ready	-1767
▁prot	-1768
arch	-1769
▁AN	-1770
▁wild	-1771
▁Brit	-1772
▁front	-1773
bed	-1774
oly	-1775
▁Not	-1776
▁lab	-1777
▁Am	-1778
▁repres	-1779
els	-1780
▁sometimes	-1781
ounded	-1782
▁eye	-1783
▁CHAPTER	-1784
II	-1785
2.	-1786
▁mot	-1787
▁cast	-1788
▁eff	-1789
▁table	-1790
▁bad	-1791
▁fif	-1792
▁class	-1793
pper	-1794
but	-1795
▁esc	-1796
ped	-1797
eneral	-1798
▁step	-1799
▁sense	-1800
▁bene	-1801
▁(_	-1802
▁vi	-1803
ops	-1804
ains	-1805
▁pict	-1806
▁entire	-1807
▁force	-1808
inary	-1809
▁idea	-1810
antly	-1811
inct	-1812
▁tou	-1813
ann	-1814
▁term	-1815
▁vill	-1816
▁age	-1817
▁nearly	-1818
▁particular	-1819
ified	-1820
▁Dr	-1821
arr	-1822
▁party	-1823
iod	-1824
5.	-1825
▁self	-1826
▁across	-1827
▁husband	-1828
▁mist	-1829
▁answer	-1830
ead	-1831
▁leng	-1832
ries	-1833
▁Bl	-1834
Well	-1835
▁further	-1836
itting	-1837
iver	-1838
▁bit	-1839
ze	-1840
ush	-1841
airs	-1842
itten	-1843
▁Fran	-1844
▁From	-1845
▁Or	-1846
mbl	-1847
body	-1848
▁quiet	-1849
▁purpose	-1850
what	-1851
▁tend	-1852
▁strange	-1853
bert	-1854
▁ann	-1855
side	-1856
▁reached	-1857
▁eight	-1858
▁immedi	-1859
well	-1860
▁ter	-1861
▁direct	-1862
▁appeared	-1863
▁sett	-1864
▁satisf	-1865
▁latter	-1866
▁continued	-1867
cially	-1868
▁affect	-1869
ples	-1870
3.	-1871
▁heav	-1872
ils	-1873
▁squ	-1874
▁longer	-1875
riage	-1876
ef	-1877
▁ask	-1878
▁peace	-1879
▁opin	-1880
▁build	-1881
4.	-1882
where	-1883
▁danger	-1884
▁master	-1885
▁hours	-1886
▁incl	-1887
let	-1888
▁length	-1889
▁attempt	-1890
▁deal	-1891
▁pray	-1892
sc	-1893
aimed	-1894
vo	-1895
ume	-1896
▁forth	-1897
ences	-1898
▁quar	-1899
iers	-1900
alked	-1901
▁scar	-1902
uff	-1903
▁Car	-1904
uted	-1905
ploy	-1906
▁circum	-1907
gan	-1908
▁sweet	-1909
▁Pl	-1910
irt	-1911
▁rock	-1912
▁influ	-1913
▁sleep	-1914
▁former	-1915
5,	-1916
▁visit	-1917
▁natural	-1918
▁placed	-1919
▁inform	-1920
▁imag	-1921
▁priv	-1922
▁period	-1923
1,	-1924
18	-1925
▁deg	-1926
room	-1927
....	-1928
▁ver	-1929
2,	-1930
ustom	-1931
▁proceed	-1932
idge	-1933
▁hill	-1934
▁taking	-1935
▁ought	-1936
▁according	-1937
oes	-1938
▁added	-1939
resh	-1940
▁hast	-1941
▁sac	-1942
▁secret	-1943
oe	-1944
▁German	-1945
▁history	-1946
ape	-1947
▁field	-1948
ously	-1949
▁late	-1950
ina	-1951
▁spec	-1952
▁med	-1953
ivers	-1954
▁surpr	-1955
.[	-1956
▁post	-1957
▁forward	-1958
▁rev	-1959
▁wit	-1960
▁fellow	-1961
▁Ab	-1962
▁led	-1963
▁watch	-1964
▁rose	-1965
ours	-1966
ald	-1967
▁break	-1968
.)	-1969
▁bey	-1970
▁occup	-1971
▁fac	-1972
erv	-1973
▁win	-1974
▁forg	-1975
ested	-1976
angu	-1977
▁won	-1978
▁slow	-1979
▁la	-1980
▁mur	-1981
OU	-1982
▁Per	-1983
cell	-1984
▁send	-1985
▁beyond	-1986
Th	-1987
▁incre	-1988
▁tro	-1989
▁employ	-1990
▁glad	-1991
▁prep	-1992
ms	-1993
usion	-1994
head	-1995
▁France	-1996
ogn	-1997
▁prison	-1998
▁pop	-1999
▁Here	-2000
▁army	-2001
▁fight	-2002
▁States	-2003
ING	-2004
4,	-2005
▁daughter	-2006
▁corn	-2007
▁hair	-2008
▁walk	-2009
ision	-2010
▁streng	-2011
6.	-2012
▁feeling	-2013
▁big	-2014
▁spoke	-2015
▁lim	-2016
▁hig	-2017
▁determ	-2018
cend	-2019
▁experi	-2020
▁Har	-2021
rodu	-2022
▁everything	-2023
EL	-2024
vere	-2025
dom	-2026
3,	-2027
▁died	-2028
▁change	-2029
orge	-2030
▁knowledge	-2031
▁service	-2032
ital	-2033
ency	-2034
rs	-2035
stem	-2036
7.	-2037
▁Z	-2038
▁grand	-2039
ening	-2040
▁bright	-2041
▁Mad	-2042
▁sugg	-2043
▁creat	-2044
ciety	-2045
aged	-2046
iling	-2047
That	-2048
ically	-2049
We	-2050
▁probably	-2051
▁soft	-2052
▁mor	-2053
▁emb	-2054
▁dream	-2055
▁mention	-2056
▁hot	-2057
▁suddenly	-2058
▁thir	-2059
6,	-2060
▁desp	-2061
▁Ne	-2062
...	-2063
▁happy	-2064
▁although	-2065
ium	-2066
ivid	-2067
▁belong	-2068
ected	-2069
▁delight	-2070
9.	-2071
like	-2072
▁distance	-2073
app	-2074
ump	-2075
▁Rom	-2076
7,	-2077
ighb	-2078
DW	-2079
▁pal	-2080
▁court	-2081
▁Cha	-2082
▁living	-2083
▁obl	-2084
▁entered	-2085
▁dog	-2086
▁laid	-2087
▁enemy	-2088
▁espe	-2089
▁repe	-2090
▁plain	-2091
▁Du	-2092
▁breat	-2093
uct	-2094
▁camp	-2095
▁jo	-2096
▁circumst	-2097
▁Do	-2098
▁written	-2099
hys	-2100
▁conn	-2101
▁pretty	-2102
ises	-2103
hood	-2104
▁saying	-2105
▁nation	-2106
▁bird	-2107
ior	-2108
▁intell	-2109
▁enc	-2110
▁complete	-2111
▁suffic	-2112
▁parts	-2113
ounds	-2114
ires	-2115
▁da	-2116
▁Let	-2117
ories	-2118
▁comes	-2119
owd	-2120
▁suppose	-2121
▁joy	-2122
▁attack	-2123
▁x	-2124
▁neighb	-2125
▁May	-2126
▁Christian	-2127
▁remember	-2128
▁greater	-2129
▁und	-2130
ray	-2131
▁occur	-2132
▁stay	-2133
ming	-2134
▁Phil	-2135
ask	-2136
▁attention	-2137
rupt	-2138
▁<	-2139
▁Some	-2140
9,	-2141
▁wat	-2142
▁Church	-2143
amed	-2144
pid	-2145
ox	-2146
▁fast	-2147
my	-2148
ixed	-2149
▁sens	-2150
▁compan	-2151
▁slight	-2152
tered	-2153
night	-2154
joy	-2155
▁contr	-2156
▁meas	-2157
OT	-2158
ler	-2159
ift	-2160
▁sad	-2161
na	-2162
mber	-2163
8,	-2164
▁system	-2165
?”	-2166
▁Eur	-2167
▁company	-2168
▁cra	-2169
8.	-2170
▁imm	-2171
▁none	-2172
▁commun	-2173
▁various	-2174
▁Captain	-2175
▁pen	-2176
▁difficult	-2177
erence	-2178
ites	-2179
▁heaven	-2180
▁opened	-2181
rif	-2182
▁ago	-2183
ests	-2184
▁Bar	-2185
mb	-2186
▁neither	-2187
▁den	-2188
▁describ	-2189
▁Pet	-2190
▁estab	-2191
▁appl	-2192
atic	-2193
▁boys	-2194
▁AND	-2195
▁accept	-2196
▁polit	-2197
▁ty	-2198
▁American	-2199
iding	-2200
▁toward	-2201
ience	-2202
▁General	-2203
▁anx	-2204
▁mouth	-2205
▁bear	-2206
▁--	-2207
LE	-2208
▁top	-2209
▁langu	-2210
▁important	-2211
▁Hen	-2212
▁doing	-2213
▁rich	-2214
▁certainly	-2215
▁paper	-2216
▁jour	-2217
ys	-2218
▁William	-2219
▁Lady	-2220
▁especially	-2221
OM	-2222
▁compl	-2223
orts	-2224
▁sto	-2225
aul	-2226
▁Europe	-2227
lect	-2228
▁pleasure	-2229
▁laugh	-2230
aching	-2231
ouses	-2232
▁consequ	-2233
▁af	-2234
velop	-2235
ushed	-2236
▁coun	-2237
▁persons	-2238
rest	-2239
ingly	-2240
▁Man	-2241
kes	-2242
enth	-2243
▁concl	-2244
▁gentleman	-2245
▁inqu	-2246
▁trees	-2247
hip	-2248
ively	-2249
▁enjoy	-2250
000	-2251
▁tor	-2252
teen	-2253
▁Fl	-2254
reme	-2255
reg	-2256
▁generally	-2257
▁conce	-2258
▁ant	-2259
orses	-2260
▁recogn	-2261
▁plan	-2262
ager	-2263
▁ang	-2264
▁opinion	-2265
note	-2266
▁comfort	-2267
isted	-2268
eness	-2269
▁remained	-2270
wise	-2271
▁depart	-2272
▁gard	-2273
▁government	-2274
▁demand	-2275
ION	-2276
▁fan	-2277
▁duty	-2278
▁Can	-2279
▁lived	-2280
ma	-2281
▁makes	-2282
ille	-2283
itary	-2284
ral	-2285
▁frequ	-2286
▁Ap	-2287
you	-2288
orted	-2289
ivil	-2290
▁scarce	-2291
olution	-2292
inner	-2293
▁action	-2294
▁fut	-2295
bur	-2296
ford	-2297
▁battle	-2298
ument	-2299
AS	-2300
▁20	-2301
▁window	-2302
cience	-2303
▁strength	-2304
▁minutes	-2305
▁gun	-2306
▁mine	-2307
ipp	-2308
▁green	-2309
hern	-2310
▁tried	-2311
▁poet	-2312
osp	-2313
ator	-2314
▁Ex	-2315
▁shad	-2316
▁condition	-2317
▁stat	-2318
▁vict	-2319
▁appearance	-2320
▁months	-2321
▁British	-2322
▁boat	-2323
▁heavy	-2324
yl	-2325
▁│	-2326
▁dress	-2327
anced	-2328
▁burn	-2329
▁Qu	-2330
oses	-2331
▁trust	-2332
▁See	-2333
▁immediately	-2334
ply	-2335
ned	-2336
▁mass	-2337
athe	-2338
with	-2339
▁Mary	-2340
▁imposs	-2341
▁influence	-2342
▁weak	-2343
▁wide	-2344
▁youth	-2345
▁ast	-2346
▁super	-2347
▁crowd	-2348
▁thick	-2349
▁below	-2350
▁El	-2351
▁inn	-2352
▁George	-2353
▁blue	-2354
▁places	-2355
▁separ	-2356
acy	-2357
▁didn	-2358
?'	-2359
▁desire	-2360
▁horses	-2361
▁single	-2362
ored	-2363
▁sister	-2364
rent	-2365
▁grow	-2366
▁York	-2367
▁wanted	-2368
▁wrong	-2369
▁north	-2370
▁gen	-2371
gar	-2372
su	-2373
oved	-2374
ike	-2375
▁[1	-2376
▁beauty	-2377
▁Ro	-2378
▁Don	-2379
▁afterwards	-2380
ingu	-2381
▁viol	-2382
▁Em	-2383
▁stone	-2384
▁Gra	-2385
▁oper	-2386
▁Paris	-2387
▁letters	-2388
ilar	-2389
▁hat	-2390
▁trouble	-2391
▁Pe	-2392
▁island	-2393
▁convers	-2394
▁spo	-2395
isc	-2396
▁cru	-2397
▁exclaimed	-2398
mn	-2399
lling	-2400
▁Oh	-2401
af	-2402
▁Why	-2403
idered	-2404
▁Que	-2405
▁gall	-2406
AM	-2407
ching	-2408
▁IN	-2409
▁bound	-2410
▁hardly	-2411
▁Tr	-2412
▁standing	-2413
▁ancient	-2414
wo	-2415
▁trib	-2416
OL	-2417
▁fresh	-2418
▁ves	-2419
▁week	-2420
▁suc	-2421
oose	-2422
▁office	-2423
▁Tom	-2424
ession	-2425
gress	-2426
iety	-2427
▁succeed	-2428
aded	-2429
▁formed	-2430
▁broken	-2431
▁rapid	-2432
eks	-2433
▁chance	-2434
▁save	-2435
▁furn	-2436
▁third	-2437
olute	-2438
▁mater	-2439
con	-2440
▁century	-2441
▁lord	-2442
itution	-2443
▁exact	-2444
ED	-2445
▁bott	-2446
▁presence	-2447
spect	-2448
▁mad	-2449
▁situ	-2450
▁Ital	-2451
Why	-2452
▁hop	-2453
▁alt	-2454
▁que	-2455
▁yourself	-2456
▁cry	-2457
▁du	-2458
If	-2459
▁Pres	-2460
▁25	-2461
▁god	-2462
▁warm	-2463
uous	-2464
yn	-2465
erc	-2466
▁Sh	-2467
▁cost	-2468
▁future	-2469
iced	-2470
▁lips	-2471
onel	-2472
▁perm	-2473
▁food	-2474
ishing	-2475
▁filled	-2476
oted	-2477
▁contain	-2478
▁whis	-2479
itation	-2480
rible	-2481
▁impossible	-2482
▁books	-2483
▁fle	-2484
reek	-2485
▁famil	-2486
por	-2487
go	-2488
▁die	-2489
▁vessel	-2490
osop	-2491
▁develop	-2492
▁lie	-2493
▁hy	-2494
ogra	-2495
▁lines	-2496
▁gri	-2497
kn	-2498
ortun	-2499
itable	-2500
ourage	-2501
▁beginning	-2502
▁tree	-2503
iant	-2504
▁Jack	-2505
▁try	-2506
omin	-2507
▁individ	-2508
▁instead	-2509
▁shar	-2510
roy	-2511
IG	-2512
▁safe	-2513
▁happened	-2514
▁arrived	-2515
▁Sha	-2516
▁liter	-2517
▁chair	-2518
iction	-2519
ajor	-2520
▁fat	-2521
ethod	-2522
▁silence	-2523
▁covered	-2524
▁liber	-2525
osing	-2526
▁simple	-2527
ication	-2528
▁Thus	-2529
ootnote	-2530
bo	-2531
▁phys	-2532
▁becom	-2533
▁clot	-2534
▁enter	-2535
▁somewhat	-2536
▁entirely	-2537
▁introdu	-2538
▁wrote	-2539
▁wis	-2540
▁direction	-2541
urs	-2542
▁fun	-2543
cil	-2544
There	-2545
▁note	-2546
▁Ag	-2547
▁Gu	-2548
hard	-2549
▁smile	-2550
▁easy	-2551
:--	-2552
ruction	-2553
▁south	-2554
▁works	-2555
▁raised	-2556
ulation	-2557
ulty	-2558
▁noble	-2559
▁perform	-2560
▁organ	-2561
▁eat	-2562
aled	-2563
▁usual	-2564
▁Count	-2565
imate	-2566
▁pun	-2567
.=	-2568
▁glass	-2569
▁carry	-2570
▁fool	-2571
▁Indian	-2572
▁figure	-2573
▁22	-2574
pond	-2575
str	-2576
▁individual	-2577
▁civil	-2578
oured	-2579
▁village	-2580
▁drew	-2581
face	-2582
▁giving	-2583
▁Me	-2584
▁easily	-2585
▁meant	-2586
In	-2587
raid	-2588
rop	-2589
light	-2590
▁Henry	-2591
▁drink	-2592
▁sole	-2593
▁stream	-2594
▁advant	-2595
▁Comm	-2596
icked	-2597
▁represent	-2598
▁guard	-2599
▁merely	-2600
▁comb	-2601
▁considered	-2602
▁phil	-2603
▁shore	-2604
ae	-2605
▁cases	-2606
▁circumstances	-2607
▁knows	-2608
▁Well	-2609
▁24	-2610
alley	-2611
▁spring	-2612
orough	-2613
▁State	-2614
esty	-2615
▁struck	-2616
ales	-2617
My	-2618
▁House	-2619
▁design	-2620
▁21	-2621
▁oblig	-2622
▁grave	-2623
inc	-2624
▁stran	-2625
▁press	-2626
ellow	-2627
▁thinking	-2628
▁Was	-2629
acher	-2630
-1	-2631
▁West	-2632
ech	-2633
▁piece	-2634
▁walked	-2635
▁music	-2636
ny	-2637
now	-2638
ashion	-2639
pel	-2640
▁United	-2641
▁yes	-2642
pan	-2643
right	-2644
bled	-2645
gra	-2646
▁whatever	-2647
▁dinner	-2648
▁learned	-2649
▁slowly	-2650
▁paid	-2651
erred	-2652
▁Yet	-2653
▁extra	-2654
sembl	-2655
▁straight	-2656
aries	-2657
▁thoughts	-2658
▁Charles	-2659
▁23	-2660
▁similar	-2661
▁journey	-2662
▁fing	-2663
icate	-2664
▁mill	-2665
▁loc	-2666
▁expression	-2667
▁custom	-2668
▁married	-2669
▁fru	-2670
▁caught	-2671
▁ign	-2672
▁pecul	-2673
come	-2674
▁started	-2675
▁pure	-2676
▁society	-2677
▁host	-2678
enced	-2679
▁observed	-2680
▁street	-2681
▁spot	-2682
▁ban	-2683
ghed	-2684
road	-2685
▁scarcely	-2686
▁language	-2687
▁loved	-2688
▁officers	-2689
ishop	-2690
▁186	-2691
olved	-2692
umb	-2693
▁peculiar	-2694
▁broad	-2695
▁allowed	-2696
▁board	-2697
▁seeing	-2698
reed	-2699
arrow	-2700
▁amount	-2701
▁greatest	-2702
▁experience	-2703
▁afraid	-2704
US	-2705
▁bless	-2706
▁capt	-2707
!'	-2708
▁subst	-2709
▁Lou	-2710
▁Gr	-2711
ett	-2712
▁process	-2713
▁iron	-2714
!”	-2715
▁moved	-2716
ux	-2717
▁value	-2718
▁lower	-2719
▁seven	-2720
house	-2721
▁La	-2722
▁charge	-2723
ubl	-2724
rel	-2725
▁Span	-2726
▁forget	-2727
ointed	-2728
▁evil	-2729
▁ball	-2730
com	-2731
aff	-2732
lt	-2733
▁born	-2734
uded	-2735
▁{	-2736
▁sick	-2737
▁material	-2738
dd	-2739
▁terr	-2740
▁leaving	-2741
▁getting	-2742
▁tone	-2743
bles	-2744
▁impro	-2745
▁summer	-2746
▁forgot	-2747
▁magn	-2748
▁surr	-2749
▁utter	-2750
▁girls	-2751
ctions	-2752
▁apparent	-2753
▁expected	-2754
ether	-2755
hel	-2756
▁tears	-2757
▁health	-2758
▁impress	-2759
olly	-2760
▁tast	-2761
AC	-2762
▁showed	-2763
ENT	-2764
▁quickly	-2765
How	-2766
oom	-2767
▁scene	-2768
▁supposed	-2769
▁cloud	-2770
▁educ	-2771
▁Indians	-2772
orth	-2773
▁houses	-2774
▁bank	-2775
▁walls	-2776
form	-2777
▁neg	-2778
▁virt	-2779
▁firm	-2780
noon	-2781
▁forms	-2782
▁pap	-2783
▁opportun	-2784
▁gaz	-2785
▁admir	-2786
▁North	-2787
▁Aug	-2788
▁thirty	-2789
▁Queen	-2790
2]	-2791
▁produced	-2792
▁built	-2793
▁method	-2794
gment	-2795
ades	-2796
▁race	-2797
▁distingu	-2798
▁grace	-2799
▁South	-2800
ev	-2801
▁James	-2802
▁Prince	-2803
▁strugg	-2804
▁Every	-2805
ibly	-2806
▁middle	-2807
▁shown	-2808
▁write	-2809
lend	-2810
▁gives	-2811
▁grew	-2812
▁stopped	-2813
▁due	-2814
▁inj	-2815
▁Where	-2816
▁----	-2817
▁artic	-2818
▁etc	-2819
1]	-2820
ov	-2821
▁outside	-2822
▁26	-2823
▁Gl	-2824
▁dim	-2825
▁deser	-2826
erous	-2827
▁depend	-2828
uses	-2829
▁exec	-2830
otion	-2831
▁Jes	-2832
▁path	-2833
umed	-2834
▁changed	-2835
▁modern	-2836
▁claim	-2837
▁assist	-2838
▁laughed	-2839
▁excell	-2840
▁bran	-2841
hib	-2842
▁record	-2843
▁leaves	-2844
▁killed	-2845
▁temper	-2846
itive	-2847
▁America	-2848
▁mess	-2849
under	-2850
▁pra	-2851
▁drawn	-2852
ription	-2853
irth	-2854
▁troops	-2855
▁Sch	-2856
▁fal	-2857
het	-2858
set	-2859
▁discovered	-2860
elve	-2861
▁Great	-2862
▁flowers	-2863
▁passion	-2864
▁soldiers	-2865
▁philosop	-2866
▁forest	-2867
▁ere	-2868
hest	-2869
▁sin	-2870
▁unto	-2871
oyal	-2872
▁winter	-2873
▁cop	-2874
gel	-2875
▁property	-2876
istic	-2877
▁marriage	-2878
rict	-2879
▁lives	-2880
▁picture	-2881
▁original	-2882
▁mountain	-2883
▁cou	-2884
▁dread	-2885
▁Thom	-2886
▁attend	-2887
▁distinct	-2888
▁Their	-2889
▁tender	-2890
▁existence	-2891
umn	-2892
▁special	-2893
▁considerable	-2894
▁Roman	-2895
▁earn	-2896
▁garden	-2897
▁favour	-2898
▁captain	-2899
▁authority	-2900
iles	-2901
▁determined	-2902
▁inha	-2903
▁hung	-2904
▁sor	-2905
ails	-2906
▁hath	-2907
▁private	-2908
▁eager	-2909
zen	-2910
▁loss	-2911
▁appears	-2912
▁notice	-2913
▁reach	-2914
3]	-2915
▁pull	-2916
▁religion	-2917
▁mut	-2918
▁waiting	-2919
▁27	-2920
inite	-2921
▁study	-2922
rid	-2923
▁fra	-2924
▁hero	-2925
eds	-2926
▁id	-2927
appe	-2928
▁wait	-2929
▁Our	-2930
▁30	-2931
▁fifty	-2932
▁arg	-2933
ishment	-2934
▁breath	-2935
▁equal	-2936
▁pref	-2937
▁Rome	-2938
▁afternoon	-2939
▁grou	-2940
▁Sm	-2941
▁Cr	-2942
▁neck	-2943
soci	-2944
▁rid	-2945
▁cat	-2946
▁hang	-2947
ITH	-2948
inal	-2949
▁absolute	-2950
reet	-2951
▁der	-2952
▁names	-2953
ables	-2954
▁snow	-2955
▁sitting	-2956
icated	-2957
ourt	-2958
▁cover	-2959
▁goes	-2960
lls	-2961
▁pleasant	-2962
▁Ju	-2963
▁ph	-2964
▁sufficient	-2965
▁surface	-2966
▁conduct	-2967
ois	-2968
▁declared	-2969
▁plant	-2970
▁symp	-2971
▁foreign	-2972
▁passage	-2973
clock	-2974
vation	-2975
▁conversation	-2976
▁28	-2977
▁extreme	-2978
▁species	-2979
▁Paul	-2980
▁1.	-2981
▁di	-2982
uge	-2983
▁news	-2984
zz	-2985
▁$	-2986
action	-2987
▁likely	-2988
▁fixed	-2989
▁narrow	-2990
▁shout	-2991
Footnote	-2992
▁receive	-2993
known	-2994
asp	-2995
▁(1	-2996
▁fly	-2997
4]	-2998
▁appre	-2999
▁speaking	-3000
▁floor	-3001
how	-3002
▁passing	-3003
jo	-3004
▁reply	-3005
▁honour	-3006
▁sword	-3007
▁beside	-3008
▁interesting	-3009
▁While	-3010
▁prepared	-3011
▁cit	-3012
▁shot	-3013
▁...	-3014
▁Government	-3015
▁trave	-3016
▁escape	-3017
▁sand	-3018
▁usually	-3019
ergy	-3020
▁degree	-3021
▁difficulty	-3022
hold	-3023
▁Rev	-3024
ander	-3025
▁laws	-3026
▁heat	-3027
opt	-3028
osite	-3029
▁silent	-3030
pir	-3031
▁religious	-3032
▁decided	-3033
▁Ant	-3034
ding	-3035
▁height	-3036
▁mentioned	-3037
▁kiss	-3038
III	-3039
▁song	-3040
▁spread	-3041
UR	-3042
ii	-3043
vey	-3044
▁Cor	-3045
lly	-3046
▁wished	-3047
irst	-3048
ague	-3049
▁Dav	-3050
5]	-3051
▁destroy	-3052
lin	-3053
▁bread	-3054
▁ess	-3055
▁personal	-3056
▁storm	-3057
▁minute	-3058
▁ur	-3059
▁believed	-3060
▁broke	-3061
▁offered	-3062
▁meeting	-3063
▁habit	-3064
ram	-3065
▁repeated	-3066
sec	-3067
▁Min	-3068
▁Je	-3069
▁Such	-3070
▁rail	-3071
▁favor	-3072
▁doctor	-3073
▁fashion	-3074
▁"'	-3075
ias	-3076
▁War	-3077
▁evidence	-3078
peror	-3079
▁dry	-3080
unk	-3081
▁speech	-3082
▁Cal	-3083
▁Duke	-3084
arily	-3085
arer	-3086
▁XX	-3087
▁unless	-3088
▁fail	-3089
▁ladies	-3090
▁obtained	-3091
▁av	-3092
▁Ear	-3093
▁maid	-3094
off	-3095
hens	-3096
▁Ric	-3097
▁cre	-3098
▁higher	-3099
▁example	-3100
▁princip	-3101
6]	-3102
▁support	-3103
▁coast	-3104
▁required	-3105
▁beneath	-3106
▁members	-3107
▁discuss	-3108
▁simply	-3109
▁test	-3110
cle	-3111
▁sides	-3112
▁+	-3113
nal	-3114
▁Russ	-3115
iments	-3116
▁sty	-3117
sed	-3118
▁allow	-3119
▁exerc	-3120
▁smo	-3121
▁vain	-3122
▁Gre	-3123
▁orders	-3124
▁animal	-3125
▁lif	-3126
▁building	-3127
▁proved	-3128
▁moon	-3129
▁pale	-3130
▁August	-3131
aval	-3132
pping	-3133
▁sail	-3134
▁possession	-3135
▁print	-3136
▁Sw	-3137
▁officer	-3138
▁tit	-3139
▁mel	-3140
vernor	-3141
ibility	-3142
▁Father	-3143
▁fit	-3144
▁progress	-3145
▁box	-3146
▁descend	-3147
▁ones	-3148
▁cab	-3149
▁perfectly	-3150
uten	-3151
▁twelve	-3152
▁apart	-3153
▁doll	-3154
▁silver	-3155
look	-3156
▁Sam	-3157
▁rise	-3158
▁witness	-3159
7]	-3160
▁cult	-3161
▁motion	-3162
▁concern	-3163
▁ordinary	-3164
pany	-3165
▁crit	-3166
▁grad	-3167
▁Jew	-3168
ocked	-3169
▁Even	-3170
▁miss	-3171
▁matters	-3172
▁fro	-3173
▁Mor	-3174
▁crown	-3175
▁Bo	-3176
▁corner	-3177
ception	-3178
▁political	-3179
▁intellig	-3180
bered	-3181
IR	-3182
▁185	-3183
dy	-3184
This	-3185
▁Sec	-3186
▁29	-3187
gu	-3188
▁deli	-3189
▁rule	-3190
ik	-3191
▁rain	-3192
▁turning	-3193
ology	-3194
▁ende	-3195
▁susp	-3196
bar	-3197
▁wise	-3198
iqu	-3199
Not	-3200
▁terrible	-3201
itor	-3202
▁Mon	-3203
▁band	-3204
▁closed	-3205
▁2.	-3206
iently	-3207
▁opportunity	-3208
▁bitter	-3209
▁preser	-3210
▁portion	-3211
ses	-3212
IV	-3213
ners	-3214
▁advantage	-3215
▁reb	-3216
▁Fe	-3217
ify	-3218
▁train	-3219
▁sky	-3220
▁please	-3221
▁steps	-3222
▁native	-3223
idently	-3224
▁instance	-3225
▁moral	-3226
▁opposite	-3227
▁ourselves	-3228
▁caused	-3229
▁game	-3230
▁valley	-3231
▁running	-3232
ustri	-3233
9]	-3234
▁187	-3235
▁west	-3236
ville	-3237
retched	-3238
ctr	-3239
▁serious	-3240
▁reve	-3241
▁adopt	-3242
▁calm	-3243
▁steam	-3244
chant	-3245
▁understood	-3246
_;	-3247
sy	-3248
illy	-3249
▁regular	-3250
ocks	-3251
St	-3252
▁weight	-3253
▁accompl	-3254
IA	-3255
▁fol	-3256
lected	-3257
erable	-3258
▁Who	-3259
▁bod	-3260
▁188	-3261
▁pit	-3262
▁space	-3263
▁ST	-3264
▁unf	-3265
morrow	-3266
▁conscious	-3267
▁animals	-3268
▁writing	-3269
▁beat	-3270
ogether	-3271
▁pot	-3272
▁splend	-3273
▁ordered	-3274
▁rul	-3275
cher	-3276
aken	-3277
▁aut	-3278
▁engaged	-3279
▁described	-3280
▁vent	-3281
▁hall	-3282
▁colour	-3283
▁wealth	-3284
▁rare	-3285
illing	-3286
wing	-3287
▁Peter	-3288
▁drawing	-3289
▁grass	-3290
▁loud	-3291
▁arch	-3292
▁contro	-3293
hal	-3294
ounced	-3295
▁chap	-3296
▁roy	-3297
ification	-3298
▁sav	-3299
▁Bur	-3300
▁happiness	-3301
▁memory	-3302
ho	-3303
▁importance	-3304
ration	-3305
▁mort	-3306
▁suggest	-3307
▁TO	-3308
▁surprise	-3309
▁bill	-3310
▁honor	-3311
▁pleased	-3312
▁agree	-3313
▁intended	-3314
rank	-3315
▁justice	-3316
pered	-3317
▁189	-3318
▁imper	-3319
aped	-3320
RO	-3321
▁WITH	-3322
respond	-3323
arm	-3324
▁station	-3325
▁bow	-3326
▁spent	-3327
▁van	-3328
▁Just	-3329
──	-3330
She	-3331
▁fright	-3332
sued	-3333
▁curious	-3334
▁star	-3335
▁prevent	-3336
no	-3337
▁frequently	-3338
▁yellow	-3339
fortun	-3340
inent	-3341
▁touch	-3342
▁mountains	-3343
▁brown	-3344
wood	-3345
field	-3346
ajesty	-3347
▁Co	-3348
▁corre	-3349
▁shut	-3350
▁spite	-3351
chan	-3352
▁pock	-3353
▁lying	-3354
ization	-3355
▁situation	-3356
▁employed	-3357
▁proud	-3358
▁cand	-3359
▁ignor	-3360
▁illustr	-3361
▁stop	-3362
▁grant	-3363
▁meaning	-3364
uf	-3365
▁greatly	-3366
fast	-3367
▁military	-3368
▁finally	-3369
pon	-3370
▁conqu	-3371
▁heads	-3372
▁sharp	-3373
▁trying	-3374
Do	-3375
iden	-3376
▁vast	-3377
▁benef	-3378
cip	-3379
▁rob	-3380
▁offer	-3381
rees	-3382
ena	-3383
▁takes	-3384
▁parent	-3385
asc	-3386
▁thorough	-3387
▁prec	-3388
▁cred	-3389
▁prove	-3390
▁pieces	-3391
▁threat	-3392
Then	-3393
▁points	-3394
▁speed	-3395
▁Frank	-3396
▁184	-3397
mit	-3398
ember	-3399
▁forty	-3400
▁courage	-3401
▁earli	-3402
▁false	-3403
▁ep	-3404
▁birds	-3405
▁trade	-3406
gypt	-3407
uments	-3408
ril	-3409
▁fortune	-3410
▁seat	-3411
▁Colonel	-3412
▁trad	-3413
ipped	-3414
▁thrown	-3415
▁size	-3416
▁endeav	-3417
▁pet	-3418
▁obtain	-3419
▁instant	-3420
▁royal	-3421
▁Const	-3422
▁mach	-3423
▁arrange	-3424
▁Louis	-3425
▁III	-3426
▁Thomas	-3427
▁Jud	-3428
▁wine	-3429
▁gro	-3430
▁movement	-3431
▁social	-3432
▁ring	-3433
▁search	-3434
▁popular	-3435
▁fallen	-3436
▁sacrif	-3437
▁affection	-3438
▁measure	-3439
▁disappe	-3440
▁Cong	-3441
▁emp	-3442
0]	-3443
▁conditions	-3444
▁ris	-3445
▁promise	-3446
▁cheer	-3447
▁sake	-3448
ational	-3449
▁ways	-3450
▁tong	-3451
isters	-3452
▁reading	-3453
▁fish	-3454
▁information	-3455
▁looks	-3456
▁Ir	-3457
▁bottom	-3458
▁capital	-3459
▁earnest	-3460
lex	-3461
ashed	-3462
pet	-3463
▁wonderful	-3464
▁difference	-3465
perior	-3466
▁fier	-3467
▁stro	-3468
ublic	-3469
▁aston	-3470
▁afford	-3471
▁fem	-3472
▁published	-3473
▁fully	-3474
ees	-3475
▁threw	-3476
alt	-3477
▁quant	-3478
▁spoken	-3479
▁sympath	-3480
olic	-3481
▁presented	-3482
aced	-3483
▁wid	-3484
▁avo	-3485
▁Lu	-3486
._,	-3487
▁writ	-3488
▁clean	-3489
▁tall	-3490
▁ears	-3491
rem	-3492
▁carefully	-3493
▁worse	-3494
lished	-3495
▁named	-3496
▁perce	-3497
▁"_	-3498
▁affairs	-3499
gl	-3500
essor	-3501
▁remains	-3502
ait	-3503
▁Bra	-3504
▁working	-3505
AD	-3506
▁Mart	-3507
▁Scot	-3508
To	-3509
▁Port	-3510
ancing	-3511
▁taste	-3512
▁attract	-3513
▁thin	-3514
▁Egypt	-3515
▁occupied	-3516
▁stir	-3517
▁pictures	-3518
▁facts	-3519
▁breast	-3520
▁terms	-3521
ege	-3522
▁season	-3523
ternal	-3524
iny	-3525
orious	-3526
▁Old	-3527
▁fruit	-3528
▁quarter	-3529
▁obliged	-3530
ids	-3531
antic	-3532
▁weeks	-3533
stand	-3534
▁Jesus	-3535
▁stock	-3536
▁excellent	-3537
▁rend	-3538
min	-3539
8]	-3540
▁talking	-3541
amb	-3542
▁numerous	-3543
ially	-3544
▁anxious	-3545
▁remarkable	-3546
▁guess	-3547
▁brave	-3548
▁judge	-3549
▁dism	-3550
▁Rep	-3551
▁feelings	-3552
idenote	-3553
ending	-3554
▁Jan	-3555
▁besides	-3556
rence	-3557
▁familiar	-3558
▁associ	-3559
▁correspond	-3560
nes	-3561
▁succeeded	-3562
Sidenote	-3563
▁Court	-3564
▁worthy	-3565
▁weather	-3566
CH	-3567
ores	-3568
▁grat	-3569
▁bold	-3570
utions	-3571
rud	-3572
▁proport	-3573
▁altogether	-3574
▁servant	-3575
▁stage	-3576
icious	-3577
▁31	-3578
▁questions	-3579
▁tow	-3580
▁honest	-3581
▁Dan	-3582
irgin	-3583
▁effort	-3584
ye	-3585
▁wel	-3586
▁hunt	-3587
They	-3588
▁inhabit	-3589
ST	-3590
▁univers	-3591
▁exped	-3592
▁forced	-3593
▁events	-3594
urb	-3595
----------------	-3596
ival	-3597
lict	-3598
Now	-3599
itated	-3600
▁powers	-3601
▁style	-3602
▁exactly	-3603
▁blind	-3604
urally	-3605
▁exper	-3606
▁183	-3607
64	-3608
▁darkness	-3609
bb	-3610
aces	-3611
oned	-3612
▁Dick	-3613
she	-3614
ok	-3615
ios	-3616
▁bas	-3617
▁err	-3618
▁advance	-3619
▁finished	-3620
ailed	-3621
▁Madame	-3622
▁distant	-3623
eal	-3624
▁extent	-3625
▁gentlemen	-3626
ental	-3627
▁Mont	-3628
▁Jer	-3629
▁birth	-3630
▁east	-3631
eed	-3632
▁hes	-3633
alled	-3634
▁gate	-3635
quis	-3636
▁ideas	-3637
ien	-3638
usted	-3639
▁compar	-3640
▁settle	-3641
▁freed	-3642
▁dwell	-3643
▁Pal	-3644
==	-3645
▁dam	-3646
▁hills	-3647
▁suffer	-3648
▁settled	-3649
ulf	-3650
▁Richard	-3651
eper	-3652
▁glance	-3653
ensive	-3654
▁fancy	-3655
▁regarded	-3656
▁aid	-3657
▁Tur	-3658
▁report	-3659
▁liberty	-3660
asons	-3661
▁sour	-3662
▁accompan	-3663
▁rough	-3664
▁wounded	-3665
▁redu	-3666
▁citiz	-3667
▁lot	-3668
▁sev	-3669
▁32	-3670
▁Two	-3671
iance	-3672
▁wear	-3673
▁holding	-3674
▁histor	-3675
▁address	-3676
estern	-3677
▁diss	-3678
▁advent	-3679
idden	-3680
▁suppl	-3681
▁clothes	-3682
▁proof	-3683
▁burst	-3684
▁pack	-3685
▁otherwise	-3686
▁serve	-3687
▁streets	-3688
oles	-3689
▁superior	-3690
yr	-3691
▁bare	-3692
▁marked	-3693
!--	-3694
▁[2	-3695
omm	-3696
atures	-3697
ators	-3698
▁establish	-3699
▁leading	-3700
▁yield	-3701
TH	-3702
▁sought	-3703
▁lies	-3704
Is	-3705
▁fate	-3706
▁highest	-3707
▁square	-3708
▁rising	-3709
▁Te	-3710
ayed	-3711
An	-3712
▁upper	-3713
▁Coll	-3714
▁dom	-3715
▁lean	-3716
▁thank	-3717
▁established	-3718
▁Su	-3719
▁practice	-3720
▁entertain	-3721
▁March	-3722
▁sorry	-3723
ky	-3724
▁June	-3725
▁removed	-3726
ora	-3727
[1	-3728
▁addition	-3729
▁particularly	-3730
▁uncle	-3731
▁famous	-3732
icks	-3733
▁opening	-3734
▁principle	-3735
▁undert	-3736
▁confidence	-3737
▁dign	-3738
fl	-3739
▁event	-3740
ams	-3741
EC	-3742
aked	-3743
ulous	-3744
pelled	-3745
▁Him	-3746
▁severe	-3747
▁Mac	-3748
▁promised	-3749
▁solemn	-3750
igned	-3751
▁companion	-3752
▁interv	-3753
orne	-3754
▁asc	-3755
▁displ	-3756
▁doctr	-3757
▁principal	-3758
liament	-3759
▁glory	-3760
▁share	-3761
burg	-3762
▁er	-3763
▁pride	-3764
▁centre	-3765
▁disapp	-3766
▁bab	-3767
▁confess	-3768
▁evidently	-3769
▁cook	-3770
lebr	-3771
▁Street	-3772
▁independ	-3773
▁judgment	-3774
▁qual	-3775
▁Mag	-3776
▁dise	-3777
▁wouldn	-3778
▁mir	-3779
▁forgotten	-3780
▁Spanish	-3781
▁catch	-3782
▁cruel	-3783
ais	-3784
▁Ber	-3785
▁sorrow	-3786
▁woods	-3787
▁vig	-3788
een	-3789
athered	-3790
lo	-3791
▁refused	-3792
▁becomes	-3793
rig	-3794
▁fault	-3795
▁soldier	-3796
isions	-3797
ocr	-3798
ograph	-3799
▁egg	-3800
▁Ham	-3801
▁Greek	-3802
ability	-3803
ourse	-3804
▁hearts	-3805
▁dece	-3806
▁roof	-3807
▁clim	-3808
▁fond	-3809
▁ships	-3810
ulated	-3811
▁shook	-3812
▁served	-3813
▁Vol	-3814
▁watched	-3815
▁waters	-3816
▁contrary	-3817
▁rate	-3818
using	-3819
▁smiled	-3820
▁instru	-3821
▁exceed	-3822
▁iii	-3823
▁stranger	-3824
▁Hall	-3825
ID	-3826
▁daily	-3827
▁prince	-3828
isp	-3829
▁eld	-3830
tering	-3831
_)	-3832
▁kingdom	-3833
▁Mc	-3834
▁unw	-3835
▁shape	-3836
▁neighbour	-3837
▁resist	-3838
▁lose	-3839
▁beha	-3840
▁cool	-3841
▁exhib	-3842
icy	-3843
▁pounds	-3844
▁amb	-3845
▁equally	-3846
▁pos	-3847
▁science	-3848
▁innoc	-3849
▁Fig	-3850
esh	-3851
▁blow	-3852
▁empt	-3853
▁thro	-3854
▁relations	-3855
▁bull	-3856
▁celebr	-3857
Don	-3858
▁interrupt	-3859
▁faint	-3860
▁district	-3861
ilst	-3862
▁CH	-3863
▁seek	-3864
eder	-3865
▁More	-3866
erson	-3867
▁190	-3868
▁Sy	-3869
▁Law	-3870
▁price	-3871
▁appointed	-3872
▁pointed	-3873
rose	-3874
▁Cath	-3875
▁consequence	-3876
▁powerful	-3877
▁larger	-3878
chief	-3879
see	-3880
▁priest	-3881
▁travel	-3882
▁farm	-3883
▁marry	-3884
▁distinguished	-3885
was	-3886
cks	-3887
▁necessity	-3888
▁une	-3889
outhern	-3890
▁concer	-3891
atory	-3892
▁contem	-3893
▁throughout	-3894
ems	-3895
▁Cast	-3896
ette	-3897
▁brief	-3898
▁increased	-3899
▁interp	-3900
▁Spain	-3901
aret	-3902
▁page	-3903
aches	-3904
sha	-3905
▁Hel	-3906
▁double	-3907
▁apparently	-3908
eg	-3909
▁edge	-3910
GE	-3911
▁Sund	-3912
▁1,	-3913
▁advanced	-3914
▁carriage	-3915
▁possessed	-3916
▁nine	-3917
▁brill	-3918
▁AL	-3919
▁spirits	-3920
▁discover	-3921
▁aud	-3922
▁July	-3923
AP	-3924
▁Yes	-3925
▁Prof	-3926
astic	-3927
▁knowing	-3928
▁produce	-3929
▁follows	-3930
▁states	-3931
▁supply	-3932
▁mult	-3933
▁Pat	-3934
Ah	-3935
anc	-3936
▁papers	-3937
▁dollars	-3938
▁Many	-3939
▁tot	-3940
▁Robert	-3941
▁gar	-3942
▁33	-3943
hem	-3944
gen	-3945
▁principles	-3946
▁remarked	-3947
▁tea	-3948
ata	-3949
▁expressed	-3950
▁kill	-3951
▁shadow	-3952
▁servants	-3953
▁instr	-3954
▁handsome	-3955
▁intellect	-3956
attered	-3957
▁remembered	-3958
▁knight	-3959
▁occurred	-3960
▁President	-3961
hant	-3962
▁keeping	-3963
▁fart	-3964
▁education	-3965
bted	-3966
hus	-3967
▁belief	-3968
do	-3969
▁35	-3970
▁dropped	-3971
▁3.	-3972
ama	-3973
▁aside	-3974
▁quietly	-3975
▁treas	-3976
▁Ma	-3977
▁desired	-3978
▁sacred	-3979
▁vo	-3980
▁inches	-3981
▁suggested	-3982
▁transl	-3983
acity	-3984
ara	-3985
▁Wil	-3986
▁holy	-3987
which	-3988
▁title	-3989
▁mighty	-3990
van	-3991
▁explain	-3992
rang	-3993
▁cup	-3994
-+	-3995
▁manif	-3996
pes	-3997
▁divine	-3998
itz	-3999
nat	-4000
▁bell	-4001
▁Jose	-4002
▁nations	-4003
▁preced	-4004
▁played	-4005
▁provided	-4006
pons	-4007
▁prim	-4008
▁En	-4009
▁subjects	-4010
▁shoulder	-4011
▁growing	-4012
▁cell	-4013
▁pp	-4014
▁Sen	-4015
ieur	-4016
▁explained	-4017
irm	-4018
bling	-4019
▁Def	-4020
▁Hist	-4021
▁enemies	-4022
ule	-4023
aker	-4024
▁Oct	-4025
▁secure	-4026
▁Af	-4027
orthern	-4028
theless	-4029
▁acquaint	-4030
▁Arch	-4031
▁inhabitants	-4032
▁lod	-4033
▁taught	-4034
uel	-4035
.’	-4036
▁pocket	-4037
▁Island	-4038
▁High	-4039
▁rapidly	-4040
ushing	-4041
▁isn	-4042
▁failed	-4043
ousin	-4044
cts	-4045
▁noticed	-4046
▁breakfast	-4047
▁fingers	-4048
▁color	-4049
▁group	-4050
▁nice	-4051
uary	-4052
▁cloth	-4053
▁dare	-4054
▁reck	-4055
▁shoulders	-4056
oms	-4057
ims	-4058
▁San	-4059
▁beast	-4060
▁Edward	-4061
▁lear	-4062
AY	-4063
aud	-4064
ainted	-4065
tis	-4066
ipe	-4067
acle	-4068
ode	-4069
▁Alex	-4070
▁purcha	-4071
▁naturally	-4072
▁joined	-4073
ese	-4074
▁date	-4075
umph	-4076
▁suffered	-4077
key	-4078
▁dust	-4079
▁Bel	-4080
▁surprised	-4081
▁couldn	-4082
▁useful	-4083
ributed	-4084
▁actually	-4085
llen	-4086
▁Had	-4087
▁rank	-4088
▁windows	-4089
);	-4090
▁pursu	-4091
▁East	-4092
▁willing	-4093
▁carrying	-4094
cies	-4095
▁shows	-4096
▁hosp	-4097
orous	-4098
▁proceeded	-4099
port	-4100
arest	-4101
▁bodies	-4102
▁description	-4103
▁worked	-4104
▁creature	-4105
▁saf	-4106
▁connected	-4107
▁stands	-4108
▁cow	-4109
▁major	-4110
▁rub	-4111
▁tongue	-4112
▁gain	-4113
▁unknown	-4114
ading	-4115
▁crossed	-4116
▁golden	-4117
--_	-4118
▁murm	-4119
cture	-4120
▁Good	-4121
ancy	-4122
ror	-4123
ique	-4124
▁seized	-4125
▁directly	-4126
▁faces	-4127
▁pair	-4128
▁During	-4129
amm	-4130
▁satisfied	-4131
omp	-4132
kin	-4133
▁~	-4134
▁grown	-4135
OW	-4136
▁Smith	-4137
uries	-4138
ico	-4139
▁mission	-4140
▁extraord	-4141
▁arran	-4142
hington	-4143
▁Before	-4144
rey	-4145
▁volume	-4146
▁gathered	-4147
▁cere	-4148
▁First	-4149
▁Philip	-4150
▁34	-4151
▁accompanied	-4152
▁rocks	-4153
▁pity	-4154
▁consist	-4155
iation	-4156
ault	-4157
ential	-4158
▁log	-4159
place	-4160
atin	-4161
▁dangerous	-4162
▁hom	-4163
▁driven	-4164
ada	-4165
▁trembl	-4166
▁completely	-4167
▁numbers	-4168
▁national	-4169
▁series	-4170
▁Perhaps	-4171
umes	-4172
▁aband	-4173
▁Prin	-4174
▁skin	-4175
cknow	-4176
▁figures	-4177
utation	-4178
▁Sept	-4179
▁agreed	-4180
esc	-4181
▁David	-4182
▁sup	-4183
gged	-4184
▁tired	-4185
▁iv	-4186
▁finding	-4187
▁Emperor	-4188
then	-4189
▁vers	-4190
▁spect	-4191
▁Virgin	-4192
▁guns	-4193
▁legs	-4194
uls	-4195
five	-4196
isl	-4197
▁acknow	-4198
▁ice	-4199
▁April	-4200
elle	-4201
▁resembl	-4202
▁relief	-4203
▁content	-4204
▁admitted	-4205
▁palace	-4206
urd	-4207
▁proportion	-4208
onsieur	-4209
▁Never	-4210
▁Your	-4211
▁applied	-4212
rate	-4213
▁182	-4214
▁Jim	-4215
ker	-4216
overy	-4217
enes	-4218
▁pred	-4219
▁current	-4220
stone	-4221
mas	-4222
72	-4223
▁181	-4224
▁IV	-4225
mond	-4226
▁Im	-4227
berg	-4228
▁Franc	-4229
▁clearly	-4230
▁River	-4231
▁wand	-4232
▁myst	-4233
bre	-4234
can	-4235
▁stones	-4236
▁freedom	-4237
▁labor	-4238
▁arrival	-4239
▁India	-4240
▁elect	-4241
=,	-4242
▁excit	-4243
▁hurried	-4244
▁writer	-4245
umber	-4246
verse	-4247
._--	-4248
▁concerning	-4249
▁Ara	-4250
▁bore	-4251
▁Acc	-4252
▁farther	-4253
▁unfortun	-4254
▁flesh	-4255
▁Ben	-4256
▁rights	-4257
▁angry	-4258
▁shel	-4259
▁reader	-4260
mony	-4261
▁saved	-4262
▁teeth	-4263
▁splendid	-4264
▁objects	-4265
▁enthus	-4266
utenant	-4267
▁bent	-4268
Let	-4269
▁Its	-4270
▁Bes	-4271
dra	-4272
▁results	-4273
▁invest	-4274
▁waited	-4275
▁task	-4276
▁regret	-4277
▁Washington	-4278
▁twice	-4279
sue	-4280
▁treated	-4281
▁Wor	-4282
▁touched	-4283
▁suspect	-4284
aper	-4285
▁theory	-4286
▁bearing	-4287
All	-4288
▁surely	-4289
▁midst	-4290
▁throw	-4291
▁Irish	-4292
▁fortun	-4293
▁Master	-4294
atives	-4295
▁fill	-4296
▁bag	-4297
▁fellows	-4298
ardon	-4299
▁consideration	-4300
▁tal	-4301
▁Che	-4302
▁40	-4303
▁sons	-4304
izing	-4305
▁persu	-4306
isher	-4307
▁[_	-4308
▁Italy	-4309
▁Wal	-4310
▁duties	-4311
▁drive	-4312
▁base	-4313
▁respons	-4314
cked	-4315
▁alive	-4316
▁march	-4317
▁impression	-4318
▁Sunday	-4319
▁Red	-4320
▁hither	-4321
▁inquir	-4322
AND	-4323
▁struggle	-4324
ture	-4325
just	-4326
▁Es	-4327
vi	-4328
▁absence	-4329
▁gather	-4330
▁smoke	-4331
▁gradually	-4332
bury	-4333
agon	-4334
uding	-4335
ivered	-4336
▁represented	-4337
.;	-4338
▁salt	-4339
itch	-4340
asing	-4341
▁correct	-4342
uable	-4343
ivity	-4344
▁telling	-4345
▁Heaven	-4346
▁proposed	-4347
ufact	-4348
▁Cam	-4349
▁reign	-4350
▁soil	-4351
▁bal	-4352
▁amongst	-4353
▁Med	-4354
▁Joseph	-4355
▁coat	-4356
▁flower	-4357
▁myster	-4358
▁spr	-4359
▁efforts	-4360
▁36	-4361
▁minds	-4362
▁tail	-4363
▁inside	-4364
rie	-4365
▁harm	-4366
▁shame	-4367
▁depth	-4368
hand	-4369
▁indu	-4370
SIL	-4371
▁Fort	-4372
▁{~	-4373
UL	-4374
▁introduced	-4375
▁Mount	-4376
▁forces	-4377
▁dressed	-4378
▁talked	-4379
▁fifteen	-4380
▁lake	-4381
▁extraordinary	-4382
▁lack	-4383
▁needed	-4384
ieve	-4385
ips	-4386
▁orn	-4387
▁luck	-4388
▁explan	-4389
▁Ser	-4390
So	-4391
▁Congress	-4392
▁excitement	-4393
----"	-4394
▁Majesty	-4395
▁commer	-4396
▁aware	-4397
▁whispered	-4398
ological	-4399
▁Germany	-4400
▁ain	-4401
▁Bet	-4402
lection	-4403
▁Cle	-4404
▁Mil	-4405
▁Mo	-4406
▁yards	-4407
▁genius	-4408
▁level	-4409
▁retreat	-4410
ica	-4411
▁obey	-4412
▁development	-4413
▁White	-4414
ta	-4415
▁mile	-4416
▁demanded	-4417
osen	-4418
▁z	-4419
cles	-4420
▁crim	-4421
▁Eliz	-4422
arted	-4423
kind	-4424
▁rode	-4425
bon	-4426
▁features	-4427
▁impl	-4428
▁connection	-4429
▁flo	-4430
▁closely	-4431
ares	-4432
▁entrance	-4433
▁require	-4434
rant	-4435
▁gloom	-4436
▁sympathy	-4437
▁suspic	-4438
▁faithful	-4439
▁Ph	-4440
chen	-4441
▁burning	-4442
▁suffering	-4443
▁truly	-4444
▁tempt	-4445
▁listen	-4446
▁type	-4447
▁ge	-4448
▁putting	-4449
▁official	-4450
▁Fred	-4451
▁prayer	-4452
while	-4453
▁accepted	-4454
▁cultiv	-4455
inn	-4456
▁ing	-4457
▁member	-4458
▁worship	-4459
▁prepar	-4460
▁previous	-4461
▁shoot	-4462
lor	-4463
leep	-4464
▁hun	-4465
▁Ca	-4466
▁quantity	-4467
▁relation	-4468
ishes	-4469
▁composed	-4470
▁obst	-4471
edy	-4472
▁whilst	-4473
law	-4474
▁rom	-4475
▁excited	-4476
▁walking	-4477
▁watching	-4478
astern	-4479
▁yours	-4480
▁brain	-4481
▁pill	-4482
▁hearing	-4483
▁Sat	-4484
▁increase	-4485
▁busy	-4486
▁advice	-4487
inity	-4488
▁lands	-4489
▁Mer	-4490
▁flat	-4491
__	-4492
▁novel	-4493
▁lovely	-4494
ittee	-4495
▁pick	-4496
▁mas	-4497
▁mal	-4498
▁counten	-4499
cer	-4500
▁constit	-4501
▁Ire	-4502
▁Black	-4503
▁instinct	-4504
inet	-4505
terday	-4506
▁hide	-4507
▁milk	-4508
▁satisfaction	-4509
,’	-4510
▁divided	-4511
▁minister	-4512
▁nearer	-4513
▁However	-4514
▁engine	-4515
ERS	-4516
ecause	-4517
iform	-4518
asant	-4519
▁companions	-4520
bly	-4521
▁spiritual	-4522
iest	-4523
▁Sal	-4524
▁profession	-4525
▁absolutely	-4526
wed	-4527
▁Jul	-4528
▁spend	-4529
▁accident	-4530
estic	-4531
▁happen	-4532
▁presently	-4533
▁Another	-4534
▁protect	-4535
▁hurt	-4536
▁falling	-4537
▁join	-4538
▁noise	-4539
For	-4540
▁ceased	-4541
▁Still	-4542
▁careful	-4543
▁moving	-4544
▁assured	-4545
▁virtue	-4546
▁slave	-4547
▁possibly	-4548
▁thoroughly	-4549
▁gained	-4550
▁revol	-4551
▁highly	-4552
UN	-4553
▁Among	-4554
▁affair	-4555
▁diam	-4556
▁flight	-4557
▁amid	-4558
▁prisoners	-4559
udd	-4560
▁interests	-4561
▁surrounded	-4562
▁prisoner	-4563
▁informed	-4564
▁buried	-4565
▁wants	-4566
▁Royal	-4567
Mr	-4568
▁Ly	-4569
▁Afric	-4570
ension	-4571
RI	-4572
▁admin	-4573
▁castle	-4574
▁bridge	-4575
OD	-4576
▁Harry	-4577
oring	-4578
▁fields	-4579
▁XV	-4580
▁column	-4581
▁coff	-4582
utch	-4583
udes	-4584
▁stars	-4585
eter	-4586
▁Holy	-4587
▁devil	-4588
▁wore	-4589
work	-4590
ilities	-4591
▁parents	-4592
fle	-4593
▁fighting	-4594
oman	-4595
▁deb	-4596
▁reser	-4597
▁seated	-4598
▁disci	-4599
▁suit	-4600
▁tele	-4601
▁resolved	-4602
▁immense	-4603
▁buy	-4604
▁practical	-4605
▁project	-4606
;"	-4607
▁listened	-4608
itory	-4609
▁uns	-4610
happ	-4611
▁supper	-4612
▁showing	-4613
unch	-4614
▁aver	-4615
▁empty	-4616
▁partly	-4617
▁queen	-4618
▁fierce	-4619
▁Though	-4620
ads	-4621
▁render	-4622
▁38	-4623
▁gods	-4624
cean	-4625
▁rendered	-4626
▁Somet	-4627
ari	-4628
▁literature	-4629
▁smiling	-4630
▁Defn	-4631
▁chamber	-4632
▁manufact	-4633
▁Ven	-4634
▁calling	-4635
▁circle	-4636
▁flag	-4637
▁Brown	-4638
standing	-4639
▁local	-4640
▁mat	-4641
oration	-4642
▁despair	-4643
▁ride	-4644
▁san	-4645
▁evident	-4646
there	-4647
▁vessels	-4648
▁0	-4649
▁worst	-4650
▁dull	-4651
▁libr	-4652
▁capable	-4653
▁begun	-4654
▁Sim	-4655
▁parties	-4656
▁labour	-4657
OS	-4658
▁Italian	-4659
▁unable	-4660
▁swift	-4661
omen	-4662
▁physical	-4663
▁welcome	-4664
▁rooms	-4665
▁store	-4666
▁dozen	-4667
▁non	-4668
▁active	-4669
▁Those	-4670
▁moments	-4671
▁arranged	-4672
▁37	-4673
▁intention	-4674
va	-4675
▁pros	-4676
▁stern	-4677
▁successful	-4678
▁exha	-4679
▁constant	-4680
lessly	-4681
▁hopes	-4682
50	-4683
▁Gree	-4684
▁wholly	-4685
▁env	-4686
▁keen	-4687
looking	-4688
▁attached	-4689
▁[3	-4690
▁population	-4691
▁interested	-4692
▁ble	-4693
▁Del	-4694
pri	-4695
UT	-4696
▁deeply	-4697
▁Lie	-4698
▁cro	-4699
▁couple	-4700
▁grief	-4701
▁stated	-4702
▁striking	-4703
ILL	-4704
▁Ah	-4705
▁ho	-4706
▁merchant	-4707
▁Company	-4708
ober	-4709
▁por	-4710
onn	-4711
▁Inst	-4712
▁branches	-4713
▁adopted	-4714
▁imagination	-4715
▁text	-4716
ula	-4717
▁Art	-4718
aps	-4719
▁singular	-4720
Ar	-4721
▁friendship	-4722
▁kindly	-4723
▁Rob	-4724
▁delicate	-4725
▁devoted	-4726
"--	-4727
▁skill	-4728
Ch	-4729
▁wicked	-4730
iece	-4731
▁approach	-4732
▁laughing	-4733
▁hence	-4734
▁imagine	-4735
▁appreci	-4736
▁ident	-4737
ustomed	-4738
▁reven	-4739
▁rout	-4740
▁plants	-4741
▁Cat	-4742
▁exercise	-4743
ician	-4744
▁indign	-4745
▁tells	-4746
▁valuable	-4747
▁safety	-4748
▁loose	-4749
▁xx	-4750
▁constitution	-4751
De	-4752
▁destroyed	-4753
▁flour	-4754
▁Reg	-4755
▁ends	-4756
▁actual	-4757
▁Again	-4758
four	-4759
▁constantly	-4760
▁teacher	-4761
▁admit	-4762
▁indiff	-4763
eping	-4764
▁crime	-4765
▁escaped	-4766
▁kinds	-4767
▁causes	-4768
enny	-4769
See	-4770
▁collect	-4771
ATION	-4772
▁dying	-4773
orse	-4774
anch	-4775
▁DE	-4776
▁arrest	-4777
la	-4778
▁condem	-4779
▁copy	-4780
▁Only	-4781
▁desper	-4782
▁narr	-4783
onscious	-4784
▁cord	-4785
▁Major	-4786
▁fer	-4787
rim	-4788
▁liked	-4789
▁abund	-4790
▁citizens	-4791
▁magnific	-4792
▁wisdom	-4793
▁hab	-4794
▁Coun	-4795
▁Nature	-4796
▁directed	-4797
▁mistake	-4798
▁rejo	-4799
nel	-4800
▁prompt	-4801
▁butter	-4802
UM	-4803
▁reasons	-4804
▁smooth	-4805
▁concerned	-4806
▁trial	-4807
▁chosen	-4808
▁brilliant	-4809
▁gray	-4810
▁Pope	-4811
▁terror	-4812
kins	-4813
▁continue	-4814
▁doors	-4815
▁Mark	-4816
▁stick	-4817
▁credit	-4818
▁countries	-4819
▁huge	-4820
▁lifted	-4821
▁drove	-4822
▁trem	-4823
▁Mal	-4824
gs	-4825
▁visited	-4826
etch	-4827
iture	-4828
▁recoll	-4829
▁pron	-4830
▁Bill	-4831
host	-4832
▁gle	-4833
▁Come	-4834
Come	-4835
▁Prov	-4836
▁Parliament	-4837
icip	-4838
▁prospect	-4839
▁fairly	-4840
▁views	-4841
▁Whe	-4842
▁Tra	-4843
▁180	-4844
▁contained	-4845
▁defe	-4846
ourable	-4847
▁wed	-4848
▁remind	-4849
▁Nap	-4850
▁separate	-4851
ols	-4852
▁4.	-4853
▁conven	-4854
ograp	-4855
aling	-4856
ldom	-4857
▁pressed	-4858
▁solid	-4859
▁50	-4860
olf	-4861
▁protection	-4862
▁nose	-4863
▁subm	-4864
rated	-4865
▁repro	-4866
▁Jac	-4867
64>	-4868
▁rad	-4869
▁notes	-4870
▁39	-4871
▁quality	-4872
▁compelled	-4873
▁plate	-4874
▁earlier	-4875
▁tum	-4876
▁Nat	-4877
▁impat	-4878
▁stead	-4879
▁murder	-4880
▁voy	-4881
▁stories	-4882
entions	-4883
▁addressed	-4884
▁strict	-4885
ana	-4886
ointment	-4887
▁Ireland	-4888
▁countenance	-4889
▁improve	-4890
▁gas	-4891
▁variety	-4892
▁patient	-4893
▁exchan	-4894
▁Ac	-4895
As	-4896
▁Ann	-4897
▁statement	-4898
▁tax	-4899
5;	-4900
agement	-4901
▁Ye	-4902
▁hoped	-4903
▁Book	-4904
▁mistress	-4905
▁bringing	-4906
▁Ste	-4907
▁Mex	-4908
2;	-4909
teenth	-4910
▁immediate	-4911
bid	-4912
▁fold	-4913
uit	-4914
ai	-4915
▁Francis	-4916
▁sovere	-4917
▁grey	-4918
▁Catholic	-4919
▁cousin	-4920
▁sufficiently	-4921
▁assistance	-4922
▁Elizab	-4923
▁wings	-4924
▁gay	-4925
▁doctrine	-4926
▁printed	-4927
rand	-4928
▁fever	-4929
tt	-4930
ourn	-4931
.--_	-4932
itate	-4933
▁Hill	-4934
▁arose	-4935
gers	-4936
inate	-4937
▁contract	-4938
▁sex	-4939
▁fleet	-4940
▁becoming	-4941
▁Er	-4942
▁Long	-4943
▁Mic	-4944
▁privile	-4945
ARD	-4946
When	-4947
▁Life	-4948
▁bord	-4949
▁exception	-4950
ounding	-4951
oused	-4952
cho	-4953
▁recomm	-4954
▁reward	-4955
▁disease	-4956
ends	-4957
10	-4958
▁Society	-4959
▁contempt	-4960
▁conclusion	-4961
▁worn	-4962
?--	-4963
▁Pers	-4964
▁pour	-4965
▁Grand	-4966
-2	-4967
▁Besides	-4968
▁disappeared	-4969
▁request	-4970
▁towns	-4971
has	-4972
▁179	-4973
▁proc	-4974
,[	-4975
ds	-4976
▁fought	-4977
▁Professor	-4978
▁effects	-4979
▁Pol	-4980
▁TH	-4981
ris	-4982
▁Nove	-4983
▁sheep	-4984
▁mercy	-4985
▁convin	-4986
▁victory	-4987
▁mix	-4988
▁female	-4989
aunt	-4990
line	-4991
▁caval	-4992
▁classes	-4993
▁jeal	-4994
▁Mass	-4995
▁acquaintance	-4996
▁sigh	-4997
▁yesterday	-4998
▁dignity	-4999
▁cities	-5000
iable	-5001
▁bay	-5002
more	-5003
▁chiefly	-5004
iber	-5005
▁aim	-5006
▁playing	-5007
▁City	-5008
EM	-5009
otes	-5010
▁article	-5011
conom	-5012
▁shop	-5013
3;	-5014
▁colon	-5015
▁energy	-5016
▁pan	-5017
▁rear	-5018
▁Feb	-5019
aming	-5020
▁clouds	-5021
▁deck	-5022
▁liqu	-5023
▁Little	-5024
▁sooner	-5025
▁commission	-5026
▁policy	-5027
▁drop	-5028
▁September	-5029
▁region	-5030
atively	-5031
▁Men	-5032
▁calcul	-5033
iel	-5034
och	-5035
▁avoid	-5036
▁October	-5037
▁everywhere	-5038
they	-5039
▁Bishop	-5040
▁Hon	-5041
thur	-5042
Who	-5043
▁friendly	-5044
1;	-5045
▁ended	-5046
▁reference	-5047
mo	-5048
TA	-5049
▁expedition	-5050
▁changes	-5051
▁choice	-5052
▁critic	-5053
urity	-5054
▁knees	-5055
▁Wood	-5056
▁murd	-5057
antry	-5058
▁Off	-5059
▁demon	-5060
▁hate	-5061
ige	-5062
▁proble	-5063
▁triumph	-5064
▁desir	-5065
▁Aunt	-5066
rit	-5067
▁Hu	-5068
▁oil	-5069
4;	-5070
▁cattle	-5071
6;	-5072
▁control	-5073
▁slightly	-5074
irit	-5075
▁seldom	-5076
▁meat	-5077
▁Did	-5078
uts	-5079
▁dogs	-5080
pro	-5081
▁final	-5082
ilty	-5083
▁unhapp	-5084
▁kit	-5085
arse	-5086
▁range	-5087
▁teach	-5088
▁visible	-5089
▁nerv	-5090
▁lover	-5091
oqu	-5092
▁discovery	-5093
▁guide	-5094
▁shr	-5095
▁throne	-5096
ller	-5097
▁plenty	-5098
▁Tem	-5099
ption	-5100
▁lat	-5101
▁market	-5102
▁commanded	-5103
▁Bay	-5104
▁wet	-5105
▁painted	-5106
▁Prot	-5107
▁Ver	-5108
ston	-5109
▁weap	-5110
▁aunt	-5111
7;	-5112
▁sacrifice	-5113
acon	-5114
▁articles	-5115
ulate	-5116
Of	-5117
▁purposes	-5118
eless	-5119
▁ruin	-5120
▁curios	-5121
illa	-5122
▁card	-5123
alog	-5124
▁praise	-5125
▁details	-5126
▁precious	-5127
▁gently	-5128
ato	-5129
▁govern	-5130
jud	-5131
▁sugar	-5132
▁conscience	-5133
eding	-5134
▁uniform	-5135
▁Dor	-5136
▁dig	-5137
▁bought	-5138
don	-5139
win	-5140
▁Marg	-5141
ounce	-5142
▁goods	-5143
▁intelligence	-5144
oleon	-5145
▁jealous	-5146
▁regiment	-5147
▁Conf	-5148
▁explanation	-5149
emed	-5150
Good	-5151
▁maintain	-5152
▁attended	-5153
▁extended	-5154
▁newsp	-5155
▁foolish	-5156
▁Earl	-5157
▁tur	-5158
▁approached	-5159
▁nur	-5160
▁permitted	-5161
▁assembl	-5162
oston	-5163
rael	-5164
▁sentiment	-5165
sey	-5166
IST	-5167
▁message	-5168
▁lux	-5169
▁Love	-5170
who	-5171
father	-5172
ribed	-5173
▁Val	-5174
▁dawn	-5175
▁accustomed	-5176
,000	-5177
usc	-5178
▁scient	-5179
▁Cont	-5180
▁older	-5181
▁convey	-5182
▁slaves	-5183
▁Elizabeth	-5184
▁division	-5185
CE	-5186
▁understanding	-5187
▁Having	-5188
▁Po	-5189
▁hidden	-5190
▁kindness	-5191
▁containing	-5192
▁extremely	-5193
Where	-5194
aints	-5195
▁asleep	-5196
▁administ	-5197
▁banks	-5198
▁indul	-5199
▁thinks	-5200
▁fee	-5201
▁caut	-5202
▁observ	-5203
▁brothers	-5204
▁chapter	-5205
oop	-5206
▁natives	-5207
riot	-5208
▁signs	-5209
▁Thou	-5210
ns	-5211
▁cler	-5212
▁ascend	-5213
▁pulled	-5214
ino	-5215
▁mental	-5216
▁unex	-5217
▁tale	-5218
long	-5219
▁Under	-5220
▁Indeed	-5221
▁strike	-5222
rough	-5223
▁Scotland	-5224
▁growth	-5225
after	-5226
▁raise	-5227
hall	-5228
▁ma	-5229
inking	-5230
worth	-5231
▁services	-5232
▁consent	-5233
inging	-5234
▁wasn	-5235
▁consult	-5236
▁charming	-5237
▁thousands	-5238
▁wishes	-5239
▁Bob	-5240
▁Like	-5241
hire	-5242
▁everybody	-5243
▁needs	-5244
▁vision	-5245
race	-5246
9;	-5247
▁acts	-5248
▁wound	-5249
bour	-5250
bing	-5251
▁instantly	-5252
▁temple	-5253
▁condu	-5254
▁treatment	-5255
▁weary	-5256
▁specim	-5257
▁Des	-5258
▁amuse	-5259
▁ox	-5260
▁42	-5261
hend	-5262
▁ven	-5263
▁celebrated	-5264
▁smaller	-5265
▁preserved	-5266
▁Spe	-5267
▁interf	-5268
inction	-5269
▁source	-5270
▁dish	-5271
▁families	-5272
pent	-5273
▁artist	-5274
▁haven	-5275
▁occasionally	-5276
▁anger	-5277
▁characters	-5278
pected	-5279
▁singing	-5280
Be	-5281
▁ben	-5282
cember	-5283
▁investig	-5284
erior	-5285
▁committed	-5286
▁defence	-5287
▁dischar	-5288
▁enl	-5289
▁returning	-5290
▁BY	-5291
▁Cons	-5292
▁fourth	-5293
agger	-5294
▁nobody	-5295
▁Mat	-5296
▁defend	-5297
acles	-5298
▁souls	-5299
mosp	-5300
▁subsequ	-5301
yer	-5302
▁greet	-5303
onder	-5304
gon	-5305
▁argument	-5306
▁Sl	-5307
ulse	-5308
▁Britain	-5309
On	-5310
bro	-5311
▁Doctor	-5312
▁Nothing	-5313
rous	-5314
▁rushed	-5315
ago	-5316
▁Latin	-5317
▁Governor	-5318
▁eggs	-5319
▁hotel	-5320
▁awful	-5321
▁destruction	-5322
▁ner	-5323
▁prosper	-5324
Al	-5325
▁innocent	-5326
▁amaz	-5327
▁voices	-5328
▁finger	-5329
▁blank	-5330
▁acquainted	-5331
▁-	-5332
▁compre	-5333
▁delivered	-5334
▁sprang	-5335
▁desert	-5336
▁accomplished	-5337
▁ahead	-5338
▁frame	-5339
▁Bab	-5340
IM	-5341
▁formerly	-5342
▁calls	-5343
▁admiration	-5344
▁anxiety	-5345
▁infinite	-5346
fall	-5347
▁difficulties	-5348
▁178	-5349
omer	-5350
▁constru	-5351
▁Napoleon	-5352
▁vic	-5353
urches	-5354
▁poison	-5355
▁Arthur	-5356
▁poetry	-5357
▁cho	-5358
▁county	-5359
▁Scott	-5360
▁Bible	-5361
tle	-5362
▁contains	-5363
aine	-5364
▁crew	-5365
▁savage	-5366
▁police	-5367
icity	-5368
▁reflect	-5369
▁learning	-5370
▁100	-5371
▁odd	-5372
▁reality	-5373
amps	-5374
ELL	-5375
board	-5376
▁hole	-5377
▁baby	-5378
▁ages	-5379
▁perpet	-5380
▁Hal	-5381
omb	-5382
atre	-5383
▁pages	-5384
▁strongly	-5385
▁ease	-5386
▁machine	-5387
bel	-5388
▁enorm	-5389
▁sixty	-5390
▁ham	-5391
▁Uncle	-5392
▁recognized	-5393
▁atmosp	-5394
▁fled	-5395
▁furnished	-5396
▁inclined	-5397
▁VI	-5398
arts	-5399
▁contrast	-5400
rian	-5401
▁CON	-5402
▁January	-5403
▁unus	-5404
▁Win	-5405
▁younger	-5406
▁Div	-5407
▁boats	-5408
▁armed	-5409
▁phr	-5410
▁kitchen	-5411
▁conver	-5412
▁sche	-5413
OP	-5414
▁Are	-5415
▁sentence	-5416
▁Union	-5417
RA	-5418
▁guilty	-5419
▁procl	-5420
▁veget	-5421
▁Green	-5422
▁mechan	-5423
▁properly	-5424
inese	-5425
▁hyp	-5426
asions	-5427
▁bree	-5428
▁probable	-5429
▁cott	-5430
▁schol	-5431
▁frequent	-5432
▁departure	-5433
ieved	-5434
▁granted	-5435
▁qualities	-5436
▁interrupted	-5437
▁confusion	-5438
fulness	-5439
▁Corn	-5440
▁(18	-5441
▁inquired	-5442
▁violent	-5443
▁simpl	-5444
▁ze	-5445
▁clergy	-5446
▁asking	-5447
▁Each	-5448
ste	-5449
▁choose	-5450
▁philosophy	-5451
▁manners	-5452
▁habits	-5453
▁wheel	-5454
▁dance	-5455
▁whence	-5456
▁domin	-5457
erted	-5458
▁kings	-5459
▁instrument	-5460
▁reform	-5461
▁utterly	-5462
▁portra	-5463
;--	-5464
▁Land	-5465
ura	-5466
ria	-5467
▁Chan	-5468
▁performed	-5469
apan	-5470
▁aspect	-5471
▁emotion	-5472
▁plans	-5473
▁Other	-5474
▁universal	-5475
▁Ke	-5476
▁manifest	-5477
▁centuries	-5478
▁Park	-5479
▁miserable	-5480
▁fo	-5481
▁pardon	-5482
▁recon	-5483
▁bos	-5484
▁pil	-5485
▁November	-5486
▁sell	-5487
▁econom	-5488
▁5.	-5489
pless	-5490
▁glorious	-5491
▁pup	-5492
▁mounted	-5493
itect	-5494
▁Both	-5495
▁clever	-5496
▁majority	-5497
▁founded	-5498
8;	-5499
▁obv	-5500
▁Mars	-5501
▁reduced	-5502
▁literary	-5503
▁Tw	-5504
▁fund	-5505
▁tight	-5506
▁behold	-5507
otton	-5508
▁Fr	-5509
▁unfortunate	-5510
▁ax	-5511
▁shouted	-5512
▁betray	-5513
▁accord	-5514
▁curiosity	-5515
ighed	-5516
▁element	-5517
▁Ox	-5518
▁Act	-5519
▁meal	-5520
AU	-5521
▁branch	-5522
▁Once	-5523
▁throat	-5524
▁Jews	-5525
▁dreadful	-5526
aks	-5527
30	-5528
▁punishment	-5529
book	-5530
▁Have	-5531
▁key	-5532
PSIL	-5533
▁Spirit	-5534
asm	-5535
PSILON	-5536
▁thrust	-5537
▁household	-5538
▁affected	-5539
upon	-5540
▁thanks	-5541
▁fulf	-5542
▁Rose	-5543
▁doubtless	-5544
▁Cham	-5545
▁2,	-5546
this	-5547
▁comfortable	-5548
▁doesn	-5549
mat	-5550
bor	-5551
▁Tre	-5552
▁December	-5553
▁Sav	-5554
▁movements	-5555
▁intense	-5556
▁tribes	-5557
▁phen	-5558
irs	-5559
rows	-5560
owder	-5561
▁tent	-5562
▁spark	-5563
▁setting	-5564
▁Boston	-5565
lie	-5566
born	-5567
▁stret	-5568
▁waste	-5569
▁surre	-5570
withstanding	-5571
▁Lake	-5572
THE	-5573
▁likewise	-5574
▁Israel	-5575
rill	-5576
▁clo	-5577
▁emer	-5578
tic	-5579
▁execution	-5580
gest	-5581
▁Squ	-5582
▁buildings	-5583
▁horn	-5584
▁paused	-5585
sm	-5586
cest	-5587
0,000	-5588
▁Emp	-5589
▁retired	-5590
▁fatal	-5591
▁profess	-5592
eenth	-5593
▁attitude	-5594
▁Mid	-5595
▁batt	-5596
▁Chinese	-5597
▁governor	-5598
12	-5599
▁excess	-5600
▁rene	-5601
▁delay	-5602
hael	-5603
▁remaining	-5604
▁abroad	-5605
▁recent	-5606
▁FR	-5607
ruary	-5608
▁thunder	-5609
▁tempor	-5610
▁readily	-5611
▁belonged	-5612
iah	-5613
▁Austri	-5614
▁observe	-5615
ugg	-5616
▁nav	-5617
▁Pri	-5618
',	-5619
▁feast	-5620
▁Mur	-5621
▁waves	-5622
▁stairs	-5623
▁sounds	-5624
▁[4	-5625
▁avail	-5626
SS	-5627
▁Ros	-5628
▁mud	-5629
▁library	-5630
▁hollow	-5631
vol	-5632
▁’	-5633
▁northern	-5634
▁enjoyed	-5635
EW	-5636
▁tub	-5637
▁ignorant	-5638
▁45	-5639
pic	-5640
▁bid	-5641
▁accur	-5642
▁cheeks	-5643
▁edition	-5644
▁Margaret	-5645
▁European	-5646
▁warri	-5647
▁Mill	-5648
▁Univers	-5649
▁depos	-5650
▁pressure	-5651
asy	-5652
▁quarters	-5653
▁grate	-5654
▁lit	-5655
▁consciousness	-5656
rived	-5657
▁Pre	-5658
▁measures	-5659
urance	-5660
▁referred	-5661
▁writers	-5662
gend	-5663
▁Fer	-5664
▁Int	-5665
urbed	-5666
▁Upon	-5667
▁jew	-5668
▁Bell	-5669
rier	-5670
▁profound	-5671
],	-5672
▁chest	-5673
▁frightened	-5674
▁delighted	-5675
lers	-5676
▁priests	-5677
acious	-5678
▁compet	-5679
▁silk	-5680
▁gift	-5681
▁lest	-5682
▁career	-5683
ola	-5684
▁created	-5685
▁blessed	-5686
▁degrees	-5687
ground	-5688
▁bend	-5689
▁obsc	-5690
▁schools	-5691
▁horiz	-5692
▁According	-5693
zy	-5694
▁convinced	-5695
▁Bro	-5696
owned	-5697
▁Sar	-5698
▁incident	-5699
▁Council	-5700
▁ocean	-5701
▁FOR	-5702
▁essential	-5703
▁shade	-5704
aign	-5705
▁assumed	-5706
▁disturb	-5707
▁absurd	-5708
▁substance	-5709
▁wretched	-5710
▁approaching	-5711
▁lately	-5712
olid	-5713
▁appeal	-5714
ashing	-5715
▁stepped	-5716
▁Three	-5717
▁alike	-5718
▁legisl	-5719
▁cabin	-5720
▁helped	-5721
▁mysterious	-5722
▁unp	-5723
▁Ang	-5724
gments	-5725
▁opposition	-5726
▁Far	-5727
▁bew	-5728
▁OM	-5729
▁stuff	-5730
▁acknowled	-5731
will	-5732
onds	-5733
▁separated	-5734
armed	-5735
▁secured	-5736
▁Russian	-5737
▁operation	-5738
▁feared	-5739
▁belonging	-5740
▁Monsieur	-5741
Your	-5742
atus	-5743
▁sen	-5744
bridge	-5745
ua	-5746
▁Virginia	-5747
▁44	-5748
▁feather	-5749
▁Sil	-5750
▁observation	-5751
▁announced	-5752
▁RE	-5753
umin	-5754
._]	-5755
▁mode	-5756
▁absor	-5757
▁bones	-5758
▁exposed	-5759
▁club	-5760
▁dil	-5761
▁41	-5762
▁elder	-5763
erent	-5764
met	-5765
▁remarks	-5766
▁inch	-5767
▁nodd	-5768
▁acid	-5769
▁scientific	-5770
▁commenced	-5771
▁benefit	-5772
▁Japan	-5773
▁inse	-5774
▁flying	-5775
▁contempl	-5776
▁rude	-5777
his	-5778
▁counter	-5779
▁opinions	-5780
▁thence	-5781
▁About	-5782
▁Step	-5783
▁Dutch	-5784
▁insc	-5785
▁precise	-5786
▁shell	-5787
▁mystery	-5788
▁breaking	-5789
▁scattered	-5790
------	-5791
erer	-5792
▁developed	-5793
▁pushed	-5794
▁lone	-5795
▁unhappy	-5796
▁suspicion	-5797
▁sovereign	-5798
RON	-5799
ums	-5800
▁excuse	-5801
▁humble	-5802
▁magnificent	-5803
▁rang	-5804
stairs	-5805
▁191	-5806
▁wooden	-5807
▁Chap	-5808
▁vac	-5809
▁leader	-5810
▁eternal	-5811
ifying	-5812
▁entit	-5813
▁mixed	-5814
▁voyage	-5815
unning	-5816
▁Vict	-5817
▁indust	-5818
▁softly	-5819
za	-5820
▁horror	-5821
▁43	-5822
▁ON	-5823
▁hint	-5824
▁pipe	-5825
▁council	-5826
▁utmost	-5827
▁abst	-5828
▁expense	-5829
▁intim	-5830
▁Cent	-5831
▁risk	-5832
▁male	-5833
▁withdra	-5834
▁swept	-5835
illery	-5836
▁intellectual	-5837
▁Mess	-5838
▁frank	-5839
▁guests	-5840
▁eagerly	-5841
▁pause	-5842
.—	-5843
▁pin	-5844
▁laughter	-5845
▁arrangement	-5846
▁insp	-5847
▁perman	-5848
▁enterpr	-5849
irty	-5850
▁reputation	-5851
▁whenever	-5852
▁unconscious	-5853
bell	-5854
held	-5855
Ex	-5856
▁plainly	-5857
iring	-5858
pass	-5859
▁steep	-5860
alem	-5861
Here	-5862
▁Princess	-5863
▁Jean	-5864
▁rele	-5865
▁islands	-5866
▁sust	-5867
▁anybody	-5868
▁concluded	-5869
▁owing	-5870
▁compared	-5871
▁Trans	-5872
▁acted	-5873
▁borne	-5874
▁chat	-5875
_--	-5876
rane	-5877
By	-5878
mbly	-5879
▁refuse	-5880
▁restra	-5881
▁distress	-5882
▁atmosphere	-5883
────	-5884
▁ded	-5885
▁wing	-5886
▁Look	-5887
ression	-5888
icial	-5889
▁Van	-5890
nces	-5891
▁propri	-5892
▁hitherto	-5893
▁signific	-5894
▁deliber	-5895
▁attempted	-5896
▁counsel	-5897
arrison	-5898
▁scorn	-5899
▁related	-5900
▁disposed	-5901
▁wra	-5902
▁deliver	-5903
▁bride	-5904
▁obed	-5905
back	-5906
ici	-5907
ka	-5908
▁History	-5909
▁delightful	-5910
▁collection	-5911
idents	-5912
▁February	-5913
sembly	-5914
▁ming	-5915
non	-5916
▁hit	-5917
▁scheme	-5918
▁nervous	-5919
▁Mother	-5920
▁ideal	-5921
▁managed	-5922
▁Mel	-5923
▁comr	-5924
▁trace	-5925
▁mankind	-5926
▁oath	-5927
▁sees	-5928
▁knife	-5929
▁picked	-5930
▁generous	-5931
▁Martin	-5932
_]	-5933
▁characteristic	-5934
▁stiff	-5935
▁surv	-5936
▁gif	-5937
▁Camp	-5938
▁uttered	-5939
▁authorities	-5940
▁flood	-5941
▁thread	-5942
▁distinction	-5943
▁Sand	-5944
▁revolution	-5945
▁#	-5946
▁weakness	-5947
▁occasions	-5948
enger	-5949
▁bosom	-5950
▁slept	-5951
▁monarch	-5952
▁sus	-5953
▁fil	-5954
▁row	-5955
▁churches	-5956
ctive	-5957
▁definite	-5958
rue	-5959
▁fix	-5960
▁useless	-5961
rog	-5962
▁177	-5963
▁match	-5964
▁forehead	-5965
▁estate	-5966
ancholy	-5967
▁Since	-5968
▁hal	-5969
▁moder	-5970
▁les	-5971
▁ascertain	-5972
urely	-5973
▁adventure	-5974
▁domestic	-5975
▁shining	-5976
▁creatures	-5977
/2	-5978
▁Wall	-5979
▁stretched	-5980
▁apply	-5981
sell	-5982
▁provin	-5983
▁vague	-5984
▁mood	-5985
▁medic	-5986
▁ric	-5987
eral	-5988
pse	-5989
ospel	-5990
▁tribe	-5991
▁Fin	-5992
cast	-5993
▁dreams	-5994
▁zeal	-5995
▁issued	-5996
mir	-5997
▁Christmas	-5998
▁rum	-5999
▁instit	-6000
▁Castle	-6001
org	-6002
▁loving	-6003
MA	-6004
▁leaf	-6005
▁kissed	-6006
uer	-6007
inder	-6008
▁independent	-6009
ORD	-6010
▁Although	-6011
▁rules	-6012
▁Sea	-6013
atched	-6014
▁Spani	-6015
▁inner	-6016
two	-6017
▁alarm	-6018
ante	-6019
▁freely	-6020
▁bark	-6021
▁reported	-6022
▁volunt	-6023
ington	-6024
▁lights	-6025
▁image	-6026
▁Part	-6027
▁architect	-6028
amma	-6029
▁collected	-6030
gent	-6031
▁Pen	-6032
▁rolled	-6033
▁nest	-6034
▁urged	-6035
▁dw	-6036
▁doc	-6037
IF	-6038
▁cavalry	-6039
▁fired	-6040
▁Christians	-6041
72>	-6042
▁transf	-6043
▁lighted	-6044
▁united	-6045
▁Ev	-6046
▁ridic	-6047
20	-6048
▁community	-6049
▁troubles	-6050
▁trembling	-6051
uther	-6052
▁dimin	-6053
ache	-6054
▁Gen	-6055
oh	-6056
inth	-6057
▁Rem	-6058
iasm	-6059
▁Flore	-6060
Did	-6061
▁charm	-6062
▁Saint	-6063
▁Dar	-6064
▁Den	-6065
▁section	-6066
▁enormous	-6067
▁Secret	-6068
phe	-6069
▁perceived	-6070
▁including	-6071
▁whisper	-6072
▁nevertheless	-6073
▁ren	-6074
▁cig	-6075
_:	-6076
arian	-6077
▁elements	-6078
▁western	-6079
liness	-6080
▁circumstance	-6081
▁examination	-6082
hank	-6083
imony	-6084
▁spl	-6085
BER	-6086
abled	-6087
▁BO	-6088
ita	-6089
▁ghost	-6090
ini	-6091
icable	-6092
▁ignorance	-6093
▁fame	-6094
▁swell	-6095
iast	-6096
▁Sometimes	-6097
▁rage	-6098
▁batter	-6099
▁completed	-6100
▁pist	-6101
▁gets	-6102
▁vel	-6103
▁noted	-6104
▁ecc	-6105
▁awa	-6106
oos	-6107
vest	-6108
▁insult	-6109
fect	-6110
apers	-6111
▁supported	-6112
▁riding	-6113
▁pier	-6114
▁od	-6115
ange	-6116
fty	-6117
▁Hol	-6118
peare	-6119
▁appropri	-6120
▁anticip	-6121
17	-6122
▁resolution	-6123
iated	-6124
▁Russia	-6125
▁fest	-6126
▁gaze	-6127
▁uncertain	-6128
lands	-6129
▁somewhere	-6130
had	-6131
▁southern	-6132
▁ach	-6133
▁interior	-6134
▁derived	-6135
▁coffee	-6136
upid	-6137
▁Jane	-6138
▁invited	-6139
▁humanity	-6140
AB	-6141
▁elsewhere	-6142
▁agreeable	-6143
▁Joe	-6144
▁interview	-6145
▁gazed	-6146
At	-6147
▁spare	-6148
▁issue	-6149
▁disposition	-6150
▁melancholy	-6151
aughters	-6152
▁Carol	-6153
▁coach	-6154
lets	-6155
▁steel	-6156
▁scenes	-6157
▁reject	-6158
▁College	-6159
actory	-6160
▁uncom	-6161
▁Day	-6162
▁tradition	-6163
▁falls	-6164
▁acquired	-6165
▁central	-6166
oys	-6167
ca	-6168
▁marks	-6169
▁Gold	-6170
25	-6171
▁adj	-6172
▁Rog	-6173
▁ancest	-6174
oln	-6175
arl	-6176
ESS	-6177
▁anch	-6178
▁neighbor	-6179
▁Ele	-6180
▁elev	-6181
▁speaks	-6182
▁burned	-6183
▁crowded	-6184
▁misery	-6185
▁Dem	-6186
▁altern	-6187
aying	-6188
▁wondered	-6189
▁province	-6190
▁Sus	-6191
▁sla	-6192
othe	-6193
Le	-6194
▁brow	-6195
▁discussion	-6196
▁methods	-6197
▁provisions	-6198
▁brig	-6199
▁penet	-6200
▁glim	-6201
15	-6202
▁eleven	-6203
▁unexpected	-6204
▁enthusiasm	-6205
▁poem	-6206
▁resc	-6207
▁attacked	-6208
▁encl	-6209
adem	-6210
▁painful	-6211
▁accordingly	-6212
▁Fair	-6213
▁prejud	-6214
yard	-6215
▁finds	-6216
▁firmly	-6217
TS	-6218
▁Protest	-6219
▁decor	-6220
▁previously	-6221
adel	-6222
▁retain	-6223
▁Thy	-6224
aws	-6225
▁rent	-6226
▁track	-6227
▁hunting	-6228
▁turns	-6229
▁electric	-6230
▁hanging	-6231
Go	-6232
▁Which	-6233
ipping	-6234
▁rust	-6235
when	-6236
▁widow	-6237
▁cher	-6238
▁listening	-6239
▁Son	-6240
iana	-6241
▁recovered	-6242
▁net	-6243
▁continu	-6244
▁dared	-6245
aly	-6246
icient	-6247
▁consists	-6248
▁violence	-6249
▁entitled	-6250
▁shock	-6251
OC	-6252
▁Cur	-6253
▁Most	-6254
▁outer	-6255
▁treasure	-6256
▁Germ	-6257
[=	-6258
▁instances	-6259
▁charged	-6260
▁campaign	-6261
▁shelter	-6262
▁union	-6263
▁troubled	-6264
▁bul	-6265
ero	-6266
amped	-6267
osure	-6268
▁ult	-6269
▁este	-6270
▁Hence	-6271
gate	-6272
▁blame	-6273
▁confined	-6274
▁School	-6275
oria	-6276
▁toler	-6277
▁marched	-6278
▁experiment	-6279
▁handed	-6280
ibr	-6281
▁specul	-6282
▁Four	-6283
▁flame	-6284
▁rush	-6285
▁decision	-6286
▁Abb	-6287
▁hastily	-6288
▁invol	-6289
add	-6290
▁Arab	-6291
▁signal	-6292
▁merry	-6293
▁begins	-6294
▁cheek	-6295
-3	-6296
▁Africa	-6297
mother	-6298
▁rope	-6299
tr	-6300
▁Dra	-6301
~,	-6302
▁Ep	-6303
▁territory	-6304
▁compass	-6305
▁residence	-6306
▁cart	-6307
▁propos	-6308
uv	-6309
OUN	-6310
▁Cap	-6311
TON	-6312
▁tower	-6313
▁unm	-6314
▁glanced	-6315
▁assert	-6316
▁average	-6317
▁contrib	-6318
▁pursued	-6319
hamed	-6320
▁Dou	-6321
▁tied	-6322
▁summon	-6323
▁examined	-6324
▁Alexander	-6325
▁accompany	-6326
▁sed	-6327
▁mild	-6328
▁Dun	-6329
engers	-6330
▁hers	-6331
▁MAR	-6332
0;	-6333
▁college	-6334
16	-6335
otted	-6336
▁lamp	-6337
====	-6338
▁demonstr	-6339
IGH	-6340
▁blaz	-6341
burgh	-6342
▁Cra	-6343
▁structure	-6344
▁disgra	-6345
▁Gal	-6346
PHA	-6347
▁teaching	-6348
lla	-6349
▁Christianity	-6350
▁mistaken	-6351
master	-6352
wick	-6353
oph	-6354
▁total	-6355
▁solution	-6356
▁apt	-6357
asped	-6358
▁operations	-6359
▁Sol	-6360
Will	-6361
incoln	-6362
▁bishop	-6363
ements	-6364
▁summ	-6365
ailing	-6366
aver	-6367
▁millions	-6368
▁Republic	-6369
▁consequently	-6370
▁App	-6371
iveness	-6372
▁supplied	-6373
▁eleg	-6374
abor	-6375
▁desperate	-6376
▁46	-6377
▁Illustr	-6378
time	-6379
Per	-6380
▁Hy	-6381
▁angel	-6382
cel	-6383
istry	-6384
▁grounds	-6385
▁annoy	-6386
▁error	-6387
▁directions	-6388
▁passes	-6389
▁conflict	-6390
▁tables	-6391
▁hurry	-6392
▁runs	-6393
▁using	-6394
▁maintained	-6395
oser	-6396
▁Bu	-6397
▁stronger	-6398
▁Anne	-6399
▁attain	-6400
▁entering	-6401
▁foundation	-6402
▁abandoned	-6403
greg	-6404
▁superst	-6405
▁patience	-6406
▁grim	-6407
olation	-6408
▁48	-6409
oubted	-6410
▁warning	-6411
▁Water	-6412
▁forming	-6413
▁failure	-6414
▁Rh	-6415
▁bask	-6416
▁railway	-6417
▁resistance	-6418
OH	-6419
▁application	-6420
▁audience	-6421
▁drift	-6422
▁murmured	-6423
▁chain	-6424
itute	-6425
▁seed	-6426
▁roads	-6427
▁existed	-6428
rison	-6429
▁yard	-6430
▁Through	-6431
▁Freder	-6432
▁beloved	-6433
▁sym	-6434
▁nearest	-6435
geon	-6436
▁favourite	-6437
▁roll	-6438
▁Fa	-6439
▁haste	-6440
▁barbar	-6441
mark	-6442
raction	-6443
SE	-6444
▁VIII	-6445
▁6.	-6446
aux	-6447
▁ling	-6448
▁Dev	-6449
▁standard	-6450
▁gates	-6451
▁adapt	-6452
——	-6453
lle	-6454
▁Bon	-6455
usive	-6456
eous	-6457
▁lonely	-6458
▁shru	-6459
▁bowed	-6460
▁philosopher	-6461
IX	-6462
▁stout	-6463
▁loyal	-6464
▁inex	-6465
icle	-6466
▁recently	-6467
▁neighbourhood	-6468
▁experienced	-6469
▁inher	-6470
▁Lieutenant	-6471
▁curtain	-6472
▁descended	-6473
▁symb	-6474
▁empire	-6475
▁grasp	-6476
▁departed	-6477
▁writes	-6478
piration	-6479
ros	-6480
▁owner	-6481
▁communication	-6482
▁ALPHA	-6483
▁rig	-6484
▁daughters	-6485
▁restored	-6486
shine	-6487
▁Holl	-6488
▁accounts	-6489
AV	-6490
▁rival	-6491
▁Fore	-6492
▁opposed	-6493
▁establishment	-6494
▁ashamed	-6495
▁exceedingly	-6496
▁swall	-6497
▁afterward	-6498
▁recall	-6499
▁whist	-6500
umption	-6501
▁tide	-6502
▁presents	-6503
▁eloqu	-6504
cent	-6505
▁bears	-6506
▁devotion	-6507
▁University	-6508
▁Lincoln	-6509
▁AR	-6510
▁prud	-6511
▁VII	-6512
Tis	-6513
▁Hard	-6514
▁gratitude	-6515
aph	-6516
▁sincere	-6517
▁Johnson	-6518
olk	-6519
ping	-6520
▁Any	-6521
hearted	-6522
,—	-6523
▁activity	-6524
▁corrupt	-6525
▁steady	-6526
▁generation	-6527
▁memor	-6528
▁flew	-6529
mes	-6530
▁mart	-6531
xed	-6532
▁(2	-6533
▁sleeping	-6534
▁ingen	-6535
rer	-6536
ulations	-6537
enses	-6538
▁slightest	-6539
▁dram	-6540
allel	-6541
▁sisters	-6542
orter	-6543
▁landed	-6544
▁scale	-6545
General	-6546
▁genu	-6547
▁verse	-6548
▁cries	-6549
Are	-6550
▁poured	-6551
▁cliff	-6552
▁forgive	-6553
ications	-6554
▁erected	-6555
ography	-6556
▁Would	-6557
▁encoura	-6558
▁senses	-6559
▁dar	-6560
▁paint	-6561
▁industry	-6562
▁ard	-6563
▁loves	-6564
car	-6565
orus	-6566
▁47	-6567
quar	-6568
▁wave	-6569
iate	-6570
water	-6571
▁Helen	-6572
_).	-6573
▁precip	-6574
▁coal	-6575
▁midnight	-6576
amation	-6577
▁brings	-6578
▁prayers	-6579
IES	-6580
▁construction	-6581
▁conviction	-6582
▁historical	-6583
▁Therefore	-6584
▁sorts	-6585
▁flung	-6586
inations	-6587
▁limited	-6588
▁captured	-6589
▁transp	-6590
▁Sur	-6591
RY	-6592
▁parish	-6593
▁actions	-6594
da	-6595
▁contact	-6596
icit	-6597
▁comment	-6598
▁overt	-6599
▁begged	-6600
igs	-6601
▁concealed	-6602
▁cotton	-6603
▁profit	-6604
▁Rel	-6605
▁cottage	-6606
▁Oxford	-6607
▁smell	-6608
irmed	-6609
▁permit	-6610
▁trick	-6611
▁bi	-6612
▁marble	-6613
▁preceding	-6614
▁seriously	-6615
▁MR	-6616
▁conception	-6617
▁railroad	-6618
▁cutting	-6619
▁deny	-6620
▁3,	-6621
▁rese	-6622
▁revel	-6623
▁rivers	-6624
▁Crown	-6625
▁million	-6626
▁debt	-6627
umped	-6628
▁treaty	-6629
ulgar	-6630
▁helpless	-6631
▁Out	-6632
▁Ty	-6633
some	-6634
bac	-6635
▁neat	-6636
▁readers	-6637
▁Dep	-6638
ki	-6639
▁straw	-6640
▁threatened	-6641
▁altar	-6642
▁extract	-6643
▁claims	-6644
▁antiqu	-6645
▁check	-6646
▁inferior	-6647
▁suggestion	-6648
▁conducted	-6649
▁noon	-6650
▁unusual	-6651
▁Walter	-6652
tym	-6653
▁capacity	-6654
▁insisted	-6655
▁remove	-6656
▁nodded	-6657
▁Jacob	-6658
▁wag	-6659
▁burden	-6660
TION	-6661
▁problem	-6662
▁largely	-6663
▁assembled	-6664
OUR	-6665
hedral	-6666
itan	-6667
▁Dist	-6668
▁Post	-6669
usions	-6670
▁situated	-6671
▁Canada	-6672
quet	-6673
▁puzz	-6674
ieu	-6675
▁rested	-6676
▁beings	-6677
▁permission	-6678
▁Res	-6679
▁Cape	-6680
Ind	-6681
ella	-6682
▁Take	-6683
▁tear	-6684
▁legal	-6685
▁Mean	-6686
uting	-6687
▁Baron	-6688
reen	-6689
▁masters	-6690
inks	-6691
▁continually	-6692
abb	-6693
▁gest	-6694
▁bottle	-6695
pher	-6696
▁Gall	-6697
▁vii	-6698
▁craft	-6699
acc	-6700
▁Ol	-6701
▁Young	-6702
▁relative	-6703
▁nurse	-6704
▁forb	-6705
oral	-6706
▁necessarily	-6707
▁hungry	-6708
▁forever	-6709
▁plat	-6710
▁settlement	-6711
erity	-6712
iii	-6713
▁astonishment	-6714
▁cam	-6715
iverse	-6716
aments	-6717
▁acting	-6718
▁subs	-6719
._)	-6720
▁distinctly	-6721
▁receiving	-6722
▁disg	-6723
▁imagined	-6724
▁joint	-6725
▁trail	-6726
ensions	-6727
bra	-6728
▁supreme	-6729
▁boast	-6730
▁alter	-6731
▁dancing	-6732
▁increasing	-6733
▁inev	-6734
low	-6735
rol	-6736
▁holds	-6737
▁sending	-6738
▁wre	-6739
▁sore	-6740
ican	-6741
usalem	-6742
▁safely	-6743
▁slavery	-6744
▁flow	-6745
▁shortly	-6746
▁Page	-6747
thren	-6748
▁wire	-6749
▁AT	-6750
▁autumn	-6751
olate	-6752
▁ped	-6753
▁rarely	-6754
▁earliest	-6755
rels	-6756
God	-6757
▁Sud	-6758
▁leaders	-6759
▁eating	-6760
▁Fri	-6761
▁testimony	-6762
arrass	-6763
▁individuals	-6764
▁detail	-6765
▁China	-6766
▁Kent	-6767
INE	-6768
▁Mus	-6769
ricult	-6770
▁ceremony	-6771
▁commonly	-6772
▁sunshine	-6773
ado	-6774
▁persec	-6775
▁om	-6776
!_	-6777
▁crying	-6778
▁conceal	-6779
eps	-6780
west	-6781
▁prevented	-6782
▁notion	-6783
▁Pier	-6784
▁trip	-6785
▁Pruss	-6786
▁reaching	-6787
▁winds	-6788
▁Gard	-6789
▁studied	-6790
▁exert	-6791
▁driving	-6792
OV	-6793
▁estim	-6794
▁resumed	-6795
rep	-6796
▁practically	-6797
▁exhausted	-6798
▁aven	-6799
IE	-6800
▁Second	-6801
▁tendency	-6802
▁EN	-6803
▁succession	-6804
▁brid	-6805
ipt	-6806
▁strangers	-6807
▁refuge	-6808
▁nights	-6809
ertainly	-6810
▁fears	-6811
zed	-6812
▁aloud	-6813
elf	-6814
▁End	-6815
▁tones	-6816
▁venture	-6817
▁sang	-6818
uce	-6819
▁legend	-6820
▁unl	-6821
▁ours	-6822
▁scream	-6823
▁strain	-6824
▁throwing	-6825
UC	-6826
▁belongs	-6827
▁scra	-6828
▁Jones	-6829
.),	-6830
▁cas	-6831
▁Mem	-6832
▁Script	-6833
▁resour	-6834
Wh	-6835
▁farmer	-6836
▁von	-6837
▁astonished	-6838
elly	-6839
▁sank	-6840
▁block	-6841
▁sport	-6842
▁contents	-6843
▁cheerful	-6844
achment	-6845
Hist	-6846
▁slipped	-6847
▁Card	-6848
▁extrem	-6849
▁peril	-6850
▁oh	-6851
▁mortal	-6852
▁complex	-6853
vell	-6854
:1	-6855
ona	-6856
▁remo	-6857
▁notwithstanding	-6858
din	-6859
▁shoes	-6860
▁committee	-6861
▁recover	-6862
quisite	-6863
▁Death	-6864
▁genuine	-6865
▁consequences	-6866
[2	-6867
ga	-6868
▁sul	-6869
▁Sax	-6870
▁prefer	-6871
▁ta	-6872
▁lofty	-6873
▁declare	-6874
▁abrupt	-6875
▁seventy	-6876
▁horrible	-6877
▁suitable	-6878
▁pursuit	-6879
▁route	-6880
▁absent	-6881
▁brand	-6882
▁wives	-6883
▁possibility	-6884
▁ash	-6885
▁[5	-6886
▁plun	-6887
▁scru	-6888
ras	-6889
bow	-6890
▁deserted	-6891
arded	-6892
▁selected	-6893
icken	-6894
▁shield	-6895
▁victim	-6896
vent	-6897
▁ambition	-6898
▁describe	-6899
aus	-6900
▁seeking	-6901
▁stupid	-6902
▁homes	-6903
gels	-6904
▁haunt	-6905
▁maiden	-6906
vity	-6907
▁originally	-6908
ida	-6909
▁resol	-6910
▁shadows	-6911
▁discipl	-6912
▁Pass	-6913
▁49	-6914
net	-6915
▁Inf	-6916
▁Sant	-6917
▁muttered	-6918
▁guest	-6919
omed	-6920
▁somehow	-6921
ules	-6922
▁scr	-6923
▁chim	-6924
ANT	-6925
▁doth	-6926
▁conj	-6927
▁eighteen	-6928
▁Southern	-6929
hum	-6930
▁commander	-6931
Very	-6932
icted	-6933
▁hundreds	-6934
▁agent	-6935
▁emperor	-6936
▁instructions	-6937
vin	-6938
▁Cross	-6939
40	-6940
wl	-6941
▁torn	-6942
▁root	-6943
▁powder	-6944
▁60	-6945
OTA	-6946
▁admire	-6947
▁Michael	-6948
▁Without	-6949
▁Romans	-6950
▁enabled	-6951
▁Portug	-6952
mod	-6953
▁Bert	-6954
URE	-6955
▁contrad	-6956
▁gracious	-6957
▁pover	-6958
▁drinking	-6959
▁resting	-6960
▁prophe	-6961
Have	-6962
▁reckon	-6963
▁echo	-6964
▁phot	-6965
pended	-6966
▁idle	-6967
▁heavily	-6968
ients	-6969
▁Sever	-6970
▁masses	-6971
▁embarrass	-6972
eling	-6973
▁Cy	-6974
▁shake	-6975
▁Gent	-6976
▁undoubted	-6977
Qu	-6978
▁revealed	-6979
▁ruins	-6980
sal	-6981
isation	-6982
OK	-6983
▁extensive	-6984
▁cree	-6985
esar	-6986
aration	-6987
▁Lee	-6988
▁external	-6989
▁moreover	-6990
▁merc	-6991
▁Jerusalem	-6992
▁Poor	-6993
▁materials	-6994
▁fathers	-6995
▁fitted	-6996
▁furniture	-6997
▁Pur	-6998
aping	-6999
▁ability	-7000
HER	-7001
▁poverty	-7002
ustral	-7003
regular	-7004
▁existing	-7005
▁drunk	-7006
▁triump	-7007
ucky	-7008
▁temperature	-7009
▁landl	-7010
▁sale	-7011
ulp	-7012
riff	-7013
▁chem	-7014
▁protest	-7015
▁objection	-7016
▁inquiry	-7017
▁Max	-7018
▁respond	-7019
OHN	-7020
▁impulse	-7021
▁regarding	-7022
icing	-7023
▁lap	-7024
oup	-7025
estion	-7026
▁suspected	-7027
▁rebell	-7028
▁commerce	-7029
natural	-7030
▁rifle	-7031
▁Est	-7032
▁metal	-7033
iary	-7034
▁indicated	-7035
▁hell	-7036
▁chose	-7037
▁Gar	-7038
▁immort	-7039
▁Secretary	-7040
▁composition	-7041
▁Vi	-7042
▁thine	-7043
▁passages	-7044
anned	-7045
▁vote	-7046
▁crossing	-7047
rage	-7048
▁disturbed	-7049
mouth	-7050
from	-7051
▁7.	-7052
abel	-7053
▁dismiss	-7054
▁shed	-7055
▁requires	-7056
course	-7057
▁Word	-7058
Can	-7059
▁Temple	-7060
▁purple	-7061
assad	-7062
OND	-7063
resses	-7064
▁merit	-7065
▁bind	-7066
▁colours	-7067
▁grateful	-7068
▁saddle	-7069
▁Also	-7070
▁sensible	-7071
ICRON	-7072
▁leis	-7073
▁engra	-7074
▁OMICRON	-7075
▁anyone	-7076
_),	-7077
▁patriot	-7078
▁reflection	-7079
▁borrow	-7080
bacco	-7081
tes	-7082
▁phrase	-7083
▁touching	-7084
bler	-7085
▁Grace	-7086
▁indifferent	-7087
▁patron	-7088
▁IOTA	-7089
▁Constant	-7090
▁stared	-7091
ART	-7092
▁production	-7093
▁sevent	-7094
▁wondering	-7095
outs	-7096
▁leather	-7097
ATE	-7098
▁exquisite	-7099
▁incon	-7100
▁chapel	-7101
▁fearful	-7102
iege	-7103
EY	-7104
▁terrif	-7105
▁ga	-7106
▁tomb	-7107
▁raising	-7108
lem	-7109
IP	-7110
keeper	-7111
▁knock	-7112
▁prem	-7113
▁perceive	-7114
One	-7115
▁OR	-7116
▁copper	-7117
▁included	-7118
▁rav	-7119
▁imprison	-7120
▁quoted	-7121
▁eastern	-7122
▁COM	-7123
▁Alb	-7124
icians	-7125
idel	-7126
▁feed	-7127
ded	-7128
▁naked	-7129
▁intelligent	-7130
anim	-7131
▁tar	-7132
vy	-7133
▁obvious	-7134
▁Columb	-7135
▁Shakes	-7136
era	-7137
▁wrath	-7138
▁thri	-7139
▁divers	-7140
vant	-7141
▁Meanwhile	-7142
▁lawyer	-7143
ties	-7144
uns	-7145
wr	-7146
▁Spaniards	-7147
▁sailed	-7148
▁lin	-7149
▁rot	-7150
▁pains	-7151
▁waist	-7152
▁portrait	-7153
▁reasonable	-7154
▁leads	-7155
▁swim	-7156
▁retire	-7157
OG	-7158
▁fires	-7159
▁wanting	-7160
,)	-7161
chester	-7162
▁magist	-7163
▁stayed	-7164
alls	-7165
▁enable	-7166
▁Next	-7167
▁hospital	-7168
IAN	-7169
▁cared	-7170
▁somebody	-7171
lessness	-7172
13	-7173
▁artillery	-7174
▁lesson	-7175
▁ranks	-7176
▁introduction	-7177
▁badly	-7178
▁XXX	-7179
▁Hor	-7180
hetic	-7181
▁encourage	-7182
▁condemned	-7183
urday	-7184
▁shone	-7185
▁limbs	-7186
▁slender	-7187
▁unlike	-7188
▁deed	-7189
▁cards	-7190
▁disgrace	-7191
oked	-7192
▁sins	-7193
▁Hugh	-7194
▁PR	-7195
▁Haw	-7196
▁steadily	-7197
........	-7198
▁combined	-7199
▁folk	-7200
▁Etym	-7201
▁bade	-7202
19	-7203
alks	-7204
bes	-7205
▁deeds	-7206
▁Luc	-7207
▁Constitution	-7208
itors	-7209
pers	-7210
▁seas	-7211
omach	-7212
▁stair	-7213
▁awak	-7214
▁villages	-7215
▁overcome	-7216
eman	-7217
▁training	-7218
▁anywhere	-7219
▁performance	-7220
miral	-7221
▁Atl	-7222
▁staff	-7223
riptions	-7224
▁comparison	-7225
▁tiny	-7226
▁burnt	-7227
▁fasc	-7228
▁Germans	-7229
▁advantages	-7230
▁Gil	-7231
▁princes	-7232
▁induced	-7233
▁fastened	-7234
▁Turk	-7235
arson	-7236
.'"	-7237
▁Bre	-7238
▁bath	-7239
▁deeper	-7240
six	-7241
▁regions	-7242
▁multitude	-7243
kerchief	-7244
eries	-7245
14	-7246
▁lightly	-7247
▁Austral	-7248
mann	-7249
▁apprehens	-7250
▁selfish	-7251
▁provide	-7252
▁pronounced	-7253
vet	-7254
▁Western	-7255
";	-7256
▁bapt	-7257
▁prepare	-7258
denly	-7259
▁employment	-7260
▁Empire	-7261
▁hastened	-7262
equ	-7263
▁Bern	-7264
▁toss	-7265
▁assure	-7266
▁neglect	-7267
▁limit	-7268
atr	-7269
▁cheap	-7270
▁pound	-7271
▁clerk	-7272
▁Bas	-7273
▁stim	-7274
▁parted	-7275
▁Tell	-7276
▁EPSILON	-7277
▁artific	-7278
▁displayed	-7279
erring	-7280
▁finest	-7281
▁repeat	-7282
▁comparatively	-7283
▁sounded	-7284
▁Leon	-7285
▁Leg	-7286
izes	-7287
useum	-7288
ulating	-7289
anks	-7290
▁parallel	-7291
amental	-7292
urre	-7293
▁gardens	-7294
▁relieved	-7295
▁quarrel	-7296
Sir	-7297
pton	-7298
▁Judge	-7299
▁vivid	-7300
▁folks	-7301
▁courts	-7302
yes	-7303
▁civilization	-7304
▁shalt	-7305
▁consisted	-7306
▁sem	-7307
▁Turn	-7308
▁blessing	-7309
▁realized	-7310
illes	-7311
May	-7312
▁gifts	-7313
▁Grant	-7314
▁remote	-7315
▁Maria	-7316
▁limits	-7317
▁intervals	-7318
▁thereby	-7319
▁beaten	-7320
▁medicine	-7321
rust	-7322
▁basis	-7323
▁princess	-7324
osh	-7325
▁exchange	-7326
▁dwelling	-7327
▁patter	-7328
65	-7329
▁wedding	-7330
wich	-7331
▁convention	-7332
▁election	-7333
▁Moses	-7334
▁sheet	-7335
▁preserve	-7336
▁arts	-7337
▁adorn	-7338
▁folly	-7339
▁denied	-7340
▁Kn	-7341
▁SC	-7342
lot	-7343
unction	-7344
▁interpret	-7345
▁job	-7346
▁queer	-7347
lying	-7348
▁sharply	-7349
▁intimate	-7350
▁clay	-7351
▁politics	-7352
uthor	-7353
▁heavens	-7354
▁fert	-7355
▁JOHN	-7356
▁prize	-7357
▁fortunate	-7358
▁au	-7359
--'	-7360
omena	-7361
▁lic	-7362
▁decide	-7363
▁authors	-7364
▁signed	-7365
ormal	-7366
▁wrought	-7367
▁endure	-7368
▁purchase	-7369
▁conquer	-7370
▁beasts	-7371
▁fatig	-7372
encies	-7373
▁permanent	-7374
AG	-7375
ifications	-7376
▁manufacture	-7377
geant	-7378
▁enterprise	-7379
▁Moreover	-7380
▁finish	-7381
cia	-7382
▁mars	-7383
▁slain	-7384
vert	-7385
▁starting	-7386
▁Bal	-7387
▁Andrew	-7388
▁pant	-7389
▁administration	-7390
wor	-7391
▁brethren	-7392
▁detect	-7393
▁confident	-7394
▁motive	-7395
▁criticism	-7396
▁hadn	-7397
▁volumes	-7398
▁pace	-7399
▁arrive	-7400
ulars	-7401
▁corps	-7402
▁mead	-7403
▁World	-7404
▁occupation	-7405
umm	-7406
▁candid	-7407
▁leaning	-7408
▁commercial	-7409
▁apartment	-7410
▁Ba	-7411
▁theatre	-7412
▁endeavour	-7413
burn	-7414
▁tick	-7415
▁student	-7416
▁gazing	-7417
▁Florence	-7418
isk	-7419
▁4,	-7420
▁irregular	-7421
▁SP	-7422
▁largest	-7423
▁perfection	-7424
gly	-7425
▁connect	-7426
▁mast	-7427
▁narrative	-7428
leton	-7429
▁cents	-7430
▁wherever	-7431
chess	-7432
▁attracted	-7433
▁groups	-7434
▁lock	-7435
▁unre	-7436
inated	-7437
▁Mexico	-7438
▁duke	-7439
▁beheld	-7440
▁goodness	-7441
EST	-7442
▁bloom	-7443
col	-7444
▁travelling	-7445
From	-7446
▁People	-7447
▁moist	-7448
▁startled	-7449
▁mould	-7450
▁determination	-7451
▁physician	-7452
azz	-7453
ustrious	-7454
ulpt	-7455
▁Ned	-7456
▁lun	-7457
▁considering	-7458
▁songs	-7459
▁Rock	-7460
▁satisfactory	-7461
▁grain	-7462
▁pine	-7463
▁supplies	-7464
▁Tim	-7465
▁boil	-7466
▁visitor	-7467
▁vary	-7468
▁gallant	-7469
▁disag	-7470
▁observations	-7471
▁minor	-7472
▁lan	-7473
ifully	-7474
▁records	-7475
▁BE	-7476
▁vine	-7477
-18	-7478
▁leaned	-7479
▁doubtful	-7480
▁yell	-7481
phia	-7482
▁recorded	-7483
alo	-7484
▁entreat	-7485
▁lively	-7486
▁tu	-7487
inence	-7488
uated	-7489
▁breeze	-7490
▁Commission	-7491
▁distrib	-7492
order	-7493
▁delic	-7494
▁FIG	-7495
▁attempts	-7496
▁covering	-7497
▁magic	-7498
itudes	-7499
▁respects	-7500
▁manage	-7501
▁/	-7502
itating	-7503
▁crack	-7504
▁outward	-7505
▁prominent	-7506
▁sixteen	-7507
rd	-7508
▁lion	-7509
fortune	-7510
▁ju	-7511
▁hatred	-7512
▁Rich	-7513
▁strengthen	-7514
▁Sun	-7515
▁tin	-7516
▁primitive	-7517
otions	-7518
Look	-7519
▁examine	-7520
▁executed	-7521
uscript	-7522
▁Army	-7523
▁fran	-7524
▁Rec	-7525
▁pointing	-7526
▁inspired	-7527
▁preferred	-7528
ogue	-7529
▁embra	-7530
▁abandon	-7531
▁customs	-7532
rates	-7533
asure	-7534
▁thereof	-7535
▁gloomy	-7536
▁commence	-7537
▁Suddenly	-7538
▁Shakespeare	-7539
▁dining	-7540
phant	-7541
▁dragged	-7542
▁surrender	-7543
▁thirst	-7544
anny	-7545
▁Penn	-7546
▁fury	-7547
leness	-7548
eur	-7549
▁tobacco	-7550
▁proceedings	-7551
▁fourteen	-7552
▁examples	-7553
iations	-7554
▁fount	-7555
▁National	-7556
▁Holland	-7557
▁feature	-7558
aur	-7559
▁hospit	-7560
▁Eve	-7561
▁hesitated	-7562
▁plays	-7563
▁laying	-7564
case	-7565
▁cease	-7566
▁graceful	-7567
onsense	-7568
bishop	-7569
▁ward	-7570
▁security	-7571
▁solitary	-7572
▁armies	-7573
▁Chief	-7574
▁department	-7575
▁shaking	-7576
▁Sub	-7577
▁Time	-7578
▁wash	-7579
▁hid	-7580
▁Soon	-7581
LY	-7582
▁appar	-7583
▁cleared	-7584
▁platform	-7585
▁attrib	-7586
▁garrison	-7587
▁Greeks	-7588
▁revenge	-7589
ints	-7590
▁coward	-7591
▁convenient	-7592
brew	-7593
▁furnish	-7594
▁sanct	-7595
rot	-7596
_."	-7597
▁preparing	-7598
ieties	-7599
▁buff	-7600
erness	-7601
▁Burn	-7602
force	-7603
▁lust	-7604
▁8.	-7605
▁Americans	-7606
▁Chapter	-7607
▁Stra	-7608
▁mob	-7609
▁Cro	-7610
quarters	-7611
▁followers	-7612
▁transform	-7613
▁feeble	-7614
▁steamer	-7615
▁independence	-7616
▁Very	-7617
▁cure	-7618
▁reception	-7619
▁assume	-7620
▁Child	-7621
▁coo	-7622
▁Town	-7623
▁thither	-7624
▁mock	-7625
iot	-7626
▁recognised	-7627
andal	-7628
▁Stephen	-7629
agues	-7630
▁painting	-7631
▁indignation	-7632
▁Pan	-7633
▁awake	-7634
iner	-7635
ws	-7636
▁chron	-7637
▁Ob	-7638
▁writings	-7639
▁enlar	-7640
▁Revolution	-7641
▁positive	-7642
▁stomach	-7643
▁obedience	-7644
▁bat	-7645
▁additional	-7646
▁Light	-7647
▁concent	-7648
▁conceived	-7649
▁eaten	-7650
▁jump	-7651
▁oak	-7652
istics	-7653
▁prel	-7654
▁roots	-7655
▁respectable	-7656
▁whereas	-7657
▁200	-7658
▁exists	-7659
▁Pac	-7660
▁arrangements	-7661
anqu	-7662
▁boots	-7663
AK	-7664
itious	-7665
▁studies	-7666
▁creation	-7667
▁contempor	-7668
▁OX	-7669
irk	-7670
▁sensation	-7671
hol	-7672
▁precisely	-7673
▁colony	-7674
▁dict	-7675
iano	-7676
▁sighed	-7677
▁sne	-7678
▁passions	-7679
▁traged	-7680
▁plot	-7681
▁gathering	-7682
▁Alice	-7683
oof	-7684
▁Dec	-7685
▁Ill	-7686
▁Nevertheless	-7687
▁apost	-7688
▁amusement	-7689
▁grows	-7690
▁Ass	-7691
▁Night	-7692
whel	-7693
▁buck	-7694
____	-7695
ez	-7696
His	-7697
52	-7698
▁groan	-7699
▁happens	-7700
▁musical	-7701
▁comprehend	-7702
terior	-7703
▁timid	-7704
mar	-7705
▁slip	-7706
▁hind	-7707
foot	-7708
▁arise	-7709
▁capture	-7710
▁offering	-7711
▁streams	-7712
▁involved	-7713
60	-7714
▁mischief	-7715
alys	-7716
atherine	-7717
fa	-7718
LES	-7719
▁flu	-7720
▁admirable	-7721
▁hed	-7722
▁knee	-7723
▁procession	-7724
▁fet	-7725
▁ruined	-7726
▁map	-7727
▁Sk	-7728
cut	-7729
▁Mos	-7730
▁beds	-7731
▁clock	-7732
▁climate	-7733
▁demands	-7734
▁Rod	-7735
▁access	-7736
▁daring	-7737
▁select	-7738
▁picturesque	-7739
▁cannon	-7740
gain	-7741
▁instruction	-7742
▁cryst	-7743
▁**	-7744
▁disgu	-7745
▁earnestly	-7746
eer	-7747
▁peasant	-7748
▁Alf	-7749
irect	-7750
▁medium	-7751
▁institutions	-7752
▁mixture	-7753
▁afforded	-7754
▁majesty	-7755
▁score	-7756
lyn	-7757
rat	-7758
▁Na	-7759
lest	-7760
▁52	-7761
pled	-7762
▁recollect	-7763
▁attained	-7764
▁Being	-7765
gram	-7766
headed	-7767
▁responsible	-7768
▁myth	-7769
▁plains	-7770
▁vulgar	-7771
▁newspaper	-7772
▁Billy	-7773
▁string	-7774
▁coarse	-7775
▁disappointed	-7776
cont	-7777
▁mingled	-7778
oping	-7779
▁Boy	-7780
▁Senate	-7781
leg	-7782
▁Sher	-7783
▁brass	-7784
▁Test	-7785
▁vanished	-7786
▁preparation	-7787
▁elected	-7788
▁washed	-7789
▁Saturday	-7790
▁rays	-7791
▁Shall	-7792
▁0.	-7793
Pl	-7794
▁privilege	-7795
▁jest	-7796
adelphia	-7797
▁wars	-7798
▁reflected	-7799
▁beach	-7800
UB	-7801
ibus	-7802
▁Os	-7803
▁claimed	-7804
▁Caesar	-7805
▁columns	-7806
QU	-7807
anda	-7808
▁students	-7809
▁paying	-7810
ISH	-7811
eight	-7812
▁respecting	-7813
Cl	-7814
iforn	-7815
▁disappointment	-7816
▁Chic	-7817
▁Ral	-7818
▁honey	-7819
▁irres	-7820
ribe	-7821
▁defect	-7822
▁area	-7823
fts	-7824
obe	-7825
▁drank	-7826
▁plates	-7827
ester	-7828
▁retained	-7829
▁rolling	-7830
▁depths	-7831
▁Over	-7832
With	-7833
▁poets	-7834
▁grandfather	-7835
▁swear	-7836
▁modest	-7837
▁mant	-7838
▁sculpt	-7839
ocratic	-7840
▁prey	-7841
▁varied	-7842
▁mostly	-7843
▁conspic	-7844
▁IX	-7845
▁stroke	-7846
▁rein	-7847
bye	-7848
▁handkerchief	-7849
▁phenomena	-7850
tw	-7851
▁provinces	-7852
▁prosperity	-7853
racy	-7854
▁enjoyment	-7855
▁flatter	-7856
▁NU	-7857
▁surrounding	-7858
▁Lucy	-7859
▁defeat	-7860
▁Protestant	-7861
▁doub	-7862
▁Met	-7863
▁invitation	-7864
▁summit	-7865
▁impressed	-7866
▁depends	-7867
aneous	-7868
▁reports	-7869
▁arrested	-7870
▁unple	-7871
igne	-7872
SON	-7873
lesiast	-7874
▁landing	-7875
itty	-7876
▁insist	-7877
▁discipline	-7878
▁lightning	-7879
seen	-7880
▁hated	-7881
▁SIG	-7882
▁Adam	-7883
▁injury	-7884
▁constructed	-7885
▁medical	-7886
▁preparations	-7887
rich	-7888
▁elabor	-7889
vis	-7890
▁sentiments	-7891
ials	-7892
▁Six	-7893
▁rat	-7894
▁keeps	-7895
ba	-7896
inger	-7897
inson	-7898
▁desires	-7899
IGHT	-7900
▁lift	-7901
90	-7902
▁feels	-7903
aria	-7904
uming	-7905
▁aged	-7906
occ	-7907
othy	-7908
▁darling	-7909
▁bloss	-7910
En	-7911
oid	-7912
▁heed	-7913
▁Minister	-7914
▁clothing	-7915
ishops	-7916
▁harmony	-7917
▁Wind	-7918
▁appet	-7919
rily	-7920
HO	-7921
▁fed	-7922
olph	-7923
▁Cart	-7924
▁virtues	-7925
arly	-7926
▁ugly	-7927
▁cir	-7928
▁simplicity	-7929
▁races	-7930
▁undoubtedly	-7931
▁Whether	-7932
▁translation	-7933
▁formation	-7934
▁PL	-7935
▁horizon	-7936
▁neglected	-7937
▁engagement	-7938
▁agricult	-7939
▁proceeding	-7940
▁champ	-7941
▁CL	-7942
▁basket	-7943
▁overwhel	-7944
▁subsequent	-7945
▁wherein	-7946
UST	-7947
inted	-7948
▁provision	-7949
▁Isa	-7950
houses	-7951
▁ceremon	-7952
▁harsh	-7953
▁pink	-7954
▁fishing	-7955
▁Samuel	-7956
▁charity	-7957
▁init	-7958
▁criminal	-7959
dig	-7960
dro	-7961
oiselle	-7962
▁persuaded	-7963
▁Admiral	-7964
▁vener	-7965
akers	-7966
▁propriet	-7967
▁pond	-7968
▁confused	-7969
▁Up	-7970
ushes	-7971
▁ate	-7972
▁cave	-7973
▁eighty	-7974
part	-7975
▁locked	-7976
▁owe	-7977
▁Stan	-7978
utive	-7979
▁survey	-7980
bet	-7981
▁display	-7982
▁Carl	-7983
▁siege	-7984
▁fruits	-7985
▁candle	-7986
▁visitors	-7987
▁bone	-7988
three	-7989
▁ministers	-7990
▁Mah	-7991
▁knocked	-7992
▁treacher	-7993
Re	-7994
▁misfortune	-7995
▁Att	-7996
ouch	-7997
AST	-7998
▁erect	-7999
▁regards	-8000
agn	-8001
▁Committee	-8002
▁accused	-8003
▁wearing	-8004
[3	-8005
▁weapons	-8006
▁specimens	-8007
▁venge	-8008
agle	-8009
▁assault	-8010
▁ener	-8011
ggy	-8012
▁offices	-8013
riages	-8014
▁tremend	-8015
urious	-8016
▁shores	-8017
tery	-8018
▁Serv	-8019
▁intercourse	-8020
▁BR	-8021
sing	-8022
vag	-8023
▁poems	-8024
▁cunning	-8025
ques	-8026
▁Wy	-8027
▁polite	-8028
▁manuscript	-8029
▁Californ	-8030
olen	-8031
▁flash	-8032
▁acknowledged	-8033
▁wandering	-8034
▁nois	-8035
▁vest	-8036
ilton	-8037
▁verses	-8038
▁Bru	-8039
▁Asia	-8040
▁pled	-8041
▁humour	-8042
▁beating	-8043
▁summoned	-8044
Jo	-8045
▁mour	-8046
mble	-8047
▁infl	-8048
▁philosoph	-8049
▁beard	-8050
▁Luther	-8051
▁trunk	-8052
▁republic	-8053
▁timber	-8054
END	-8055
▁angels	-8056
▁trif	-8057
▁perple	-8058
ills	-8059
▁balance	-8060
▁comrades	-8061
▁persist	-8062
grat	-8063
▁wages	-8064
▁Ruth	-8065
▁Englishman	-8066
▁Fra	-8067
▁Arist	-8068
▁rises	-8069
sters	-8070
icles	-8071
▁Ell	-8072
▁tun	-8073
▁UN	-8074
▁upright	-8075
▁FO	-8076
orthy	-8077
▁companies	-8078
licted	-8079
▁institution	-8080
▁park	-8081
▁nephe	-8082
▁Brother	-8083
▁invari	-8084
▁farew	-8085
arc	-8086
pical	-8087
▁gig	-8088
▁deer	-8089
3)	-8090
▁Tor	-8091
▁Down	-8092
gn	-8093
▁fain	-8094
▁satisfy	-8095
necess	-8096
▁176	-8097
▁cens	-8098
▁rud	-8099
▁planted	-8100
▁mate	-8101
▁complain	-8102
▁improvement	-8103
▁vigorous	-8104
▁organization	-8105
omy	-8106
bu	-8107
▁occurs	-8108
▁cultivated	-8109
hered	-8110
▁Add	-8111
▁surround	-8112
▁dried	-8113
cs	-8114
▁Greece	-8115
▁jumped	-8116
▁Wat	-8117
going	-8118
▁shells	-8119
▁confession	-8120
▁offence	-8121
▁anchor	-8122
▁slee	-8123
▁crept	-8124
▁jack	-8125
▁Angel	-8126
▁substant	-8127
▁considerably	-8128
▁entertained	-8129
▁encoun	-8130
Pro	-8131
▁5,	-8132
▁dressing	-8133
▁farewell	-8134
oting	-8135
▁experiments	-8136
▁clam	-8137
▁bol	-8138
▁rhy	-8139
▁incred	-8140
▁funeral	-8141
:0	-8142
awn	-8143
▁favorite	-8144
▁qui	-8145
▁Philadelphia	-8146
onia	-8147
▁rug	-8148
▁musk	-8149
▁53	-8150
▁Mond	-8151
▁55	-8152
▁papa	-8153
ensity	-8154
▁induce	-8155
▁diameter	-8156
▁dur	-8157
▁tenderness	-8158
dess	-8159
▁behalf	-8160
▁Comp	-8161
▁hut	-8162
▁diver	-8163
▁daylight	-8164
▁Footnote	-8165
▁destined	-8166
▁handle	-8167
▁motives	-8168
:2	-8169
haw	-8170
never	-8171
▁accomplish	-8172
ervation	-8173
▁responsibility	-8174
▁PRE	-8175
▁OXIA	-8176
▁Jeff	-8177
▁Mort	-8178
Or	-8179
graph	-8180
called	-8181
▁discl	-8182
▁Pot	-8183
▁indic	-8184
boat	-8185
▁bond	-8186
▁refer	-8187
olis	-8188
▁wagon	-8189
▁chiefs	-8190
inus	-8191
▁feathers	-8192
utenberg	-8193
▁exhibited	-8194
▁model	-8195
inery	-8196
▁NEW	-8197
▁Si	-8198
▁mamma	-8199
▁Knight	-8200
▁bewild	-8201
▁reproach	-8202
▁agony	-8203
▁associated	-8204
▁recommend	-8205
▁warriors	-8206
▁pile	-8207
▁confirmed	-8208
▁gru	-8209
sych	-8210
▁appointment	-8211
▁occasional	-8212
▁ventured	-8213
▁54	-8214
▁dirty	-8215
▁cloak	-8216
▁9.	-8217
▁formal	-8218
▁exagger	-8219
▁arist	-8220
▁namely	-8221
emon	-8222
▁Several	-8223
▁Frederick	-8224
▁cy	-8225
ano	-8226
▁mutual	-8227
▁distinguish	-8228
▁instruments	-8229
▁deadly	-8230
ORY	-8231
▁closer	-8232
iac	-8233
▁culture	-8234
asting	-8235
▁risen	-8236
▁irr	-8237
chn	-8238
vas	-8239
▁effected	-8240
▁Presently	-8241
▁Bart	-8242
▁fifth	-8243
ila	-8244
▁saint	-8245
▁vice	-8246
ounted	-8247
▁lend	-8248
▁Put	-8249
▁fanci	-8250
lement	-8251
▁adding	-8252
▁proposition	-8253
plom	-8254
▁losing	-8255
▁hostile	-8256
onies	-8257
▁firing	-8258
▁Ple	-8259
▁illness	-8260
▁Lew	-8261
▁load	-8262
▁LE	-8263
▁messenger	-8264
▁accommod	-8265
▁à	-8266
▁portions	-8267
▁giant	-8268
▁internal	-8269
▁Middle	-8270
▁nerves	-8271
urg	-8272
▁tom	-8273
osity	-8274
▁ber	-8275
▁subl	-8276
▁remainder	-8277
▁Author	-8278
▁bush	-8279
▁mans	-8280
ala	-8281
▁stirred	-8282
▁flames	-8283
▁passengers	-8284
▁gown	-8285
▁Hebrew	-8286
▁Hay	-8287
MAN	-8288
00.	-8289
▁cu	-8290
▁educated	-8291
▁tour	-8292
▁repent	-8293
uously	-8294
▁Sum	-8295
▁abol	-8296
▁Libr	-8297
▁foe	-8298
aging	-8299
Perhaps	-8300
▁childhood	-8301
▁gang	-8302
▁veil	-8303
▁roses	-8304
▁Confeder	-8305
▁invent	-8306
▁advoc	-8307
olas	-8308
▁secretary	-8309
▁Hart	-8310
▁wake	-8311
▁fragments	-8312
▁Nich	-8313
▁boiling	-8314
▁Edition	-8315
▁yer	-8316
▁transport	-8317
▁critical	-8318
▁correspondence	-8319
▁staring	-8320
mind	-8321
▁lessons	-8322
▁romance	-8323
▁Ralph	-8324
▁available	-8325
▁Northern	-8326
reement	-8327
whe	-8328
▁designed	-8329
▁roar	-8330
umps	-8331
▁universe	-8332
▁engage	-8333
▁Nav	-8334
urrection	-8335
Never	-8336
▁drops	-8337
▁`	-8338
throp	-8339
▁́	-8340
bec	-8341
▁liberal	-8342
▁editor	-8343
▁TAU	-8344
Con	-8345
▁reprodu	-8346
▁images	-8347
▁spell	-8348
▁cream	-8349
▁Chat	-8350
▁symbol	-8351
▁forests	-8352
sch	-8353
▁abundant	-8354
▁acres	-8355
▁judges	-8356
achel	-8357
▁accum	-8358
▁vengeance	-8359
▁righteous	-8360
▁descent	-8361
▁negot	-8362
▁colonel	-8363
enna	-8364
▁Dis	-8365
▁ens	-8366
▁Tri	-8367
▁fisher	-8368
▁Buck	-8369
uity	-8370
▁calculated	-8371
▁sunk	-8372
▁president	-8373
▁bron	-8374
adise	-8375
▁Neither	-8376
▁SIGMA	-8377
▁Hind	-8378
Un	-8379
▁promptly	-8380
fare	-8381
▁intend	-8382
▁tid	-8383
▁175	-8384
▁improved	-8385
scape	-8386
▁pleasing	-8387
artment	-8388
▁chimney	-8389
▁silently	-8390
borough	-8391
▁haz	-8392
▁yonder	-8393
▁wounds	-8394
▁districts	-8395
▁alarmed	-8396
Se	-8397
uish	-8398
▁combination	-8399
▁extravag	-8400
▁review	-8401
▁resign	-8402
▁consisting	-8403
-4	-8404
▁reluct	-8405
atisf	-8406
▁Arm	-8407
oonful	-8408
grim	-8409
▁desk	-8410
▁sailor	-8411
▁border	-8412
▁certainty	-8413
▁Roger	-8414
▁occupy	-8415
▁moderate	-8416
▁disagree	-8417
eers	-8418
▁indifference	-8419
ocracy	-8420
▁hunger	-8421
▁oun	-8422
othes	-8423
▁fancied	-8424
▁Bi	-8425
▁palm	-8426
▁weapon	-8427
.[2	-8428
▁reserve	-8429
▁10.	-8430
▁infant	-8431
▁visits	-8432
▁wilderness	-8433
▁Bull	-8434
▁quart	-8435
▁calmly	-8436
▁Supp	-8437
▁contest	-8438
▁fairy	-8439
▁infantry	-8440
▁missed	-8441
▁unjust	-8442
tree	-8443
▁based	-8444
▁inquire	-8445
▁Office	-8446
▁holes	-8447
▁incons	-8448
irds	-8449
▁glow	-8450
▁τ	-8451
▁Jewish	-8452
▁£	-8453
uk	-8454
▁SE	-8455
▁conceive	-8456
▁Head	-8457
▁Wales	-8458
▁mourn	-8459
▁mail	-8460
point	-8461
▁Marie	-8462
▁navig	-8463
Mrs	-8464
▁warrant	-8465
▁bushes	-8466
▁submit	-8467
▁Swed	-8468
▁courtes	-8469
▁heap	-8470
▁indisp	-8471
▁romantic	-8472
▁Liber	-8473
▁confessed	-8474
▁realize	-8475
ighted	-8476
▁congrat	-8477
zo	-8478
eyed	-8479
▁brick	-8480
glass	-8481
▁blows	-8482
▁prevailed	-8483
ulus	-8484
▁Lo	-8485
ersed	-8486
▁peas	-8487
▁annual	-8488
▁altered	-8489
▁contented	-8490
75	-8491
▁grin	-8492
▁stores	-8493
wall	-8494
▁tales	-8495
▁citizen	-8496
▁brush	-8497
ippi	-8498
▁Kate	-8499
herent	-8500
▁degr	-8501
▁liquid	-8502
ographical	-8503
uation	-8504
▁smart	-8505
llers	-8506
▁RO	-8507
▁footst	-8508
▁pressing	-8509
▁canoe	-8510
▁incap	-8511
▁pig	-8512
].	-8513
gging	-8514
ashes	-8515
▁Egyptian	-8516
▁Project	-8517
00,	-8518
▁sadly	-8519
kward	-8520
wa	-8521
▁troop	-8522
▁placing	-8523
▁attractive	-8524
▁Hot	-8525
▁lieutenant	-8526
▁recognize	-8527
▁strictly	-8528
▁advancing	-8529
▁pir	-8530
racted	-8531
▁elephant	-8532
▁voc	-8533
▁peaceful	-8534
▁sober	-8535
▁[6	-8536
▁sailors	-8537
▁site	-8538
▁wheat	-8539
▁assigned	-8540
▁heartily	-8541
▁weigh	-8542
▁trump	-8543
ioned	-8544
text	-8545
▁Cab	-8546
▁pleasures	-8547
▁Fle	-8548
▁colonies	-8549
▁Ha	-8550
▁invention	-8551
rained	-8552
ands	-8553
▁org	-8554
▁}	-8555
▁gesture	-8556
aired	-8557
▁imperfect	-8558
▁Fox	-8559
▁healthy	-8560
▁dus	-8561
▁superf	-8562
box	-8563
▁determine	-8564
▁amused	-8565
▁sympt	-8566
▁Edin	-8567
▁colors	-8568
zing	-8569
▁temporary	-8570
▁holid	-8571
only	-8572
▁pious	-8573
▁PER	-8574
▁ashes	-8575
▁desirable	-8576
▁Bed	-8577
ingham	-8578
▁commanding	-8579
▁ske	-8580
▁deemed	-8581
▁wheels	-8582
▁unnecess	-8583
▁painter	-8584
▁conspir	-8585
▁PRO	-8586
▁inevitable	-8587
▁payment	-8588
▁prophet	-8589
▁marvell	-8590
▁Mir	-8591
▁resources	-8592
▁flashed	-8593
▁announce	-8594
▁Gib	-8595
▁Brig	-8596
piece	-8597
▁gravely	-8598
▁Fre	-8599
▁EX	-8600
rive	-8601
▁Ohio	-8602
bbing	-8603
apping	-8604
▁merchants	-8605
▁counted	-8606
onic	-8607
iger	-8608
▁injured	-8609
▁hook	-8610
▁tremendous	-8611
▁seats	-8612
▁loaded	-8613
▁ninet	-8614
▁ample	-8615
▁purchased	-8616
▁salvation	-8617
▁Finally	-8618
Miss	-8619
▁tranqu	-8620
▁Fel	-8621
▁cel	-8622
▁jur	-8623
▁nephew	-8624
▁prosec	-8625
agan	-8626
▁MS	-8627
azine	-8628
▁Imper	-8629
▁bitterly	-8630
▁Low	-8631
ifies	-8632
▁disgust	-8633
36	-8634
▁Austria	-8635
▁discharge	-8636
▁pretended	-8637
isible	-8638
▁dense	-8639
▁changing	-8640
▁sketch	-8641
▁Lar	-8642
▁throng	-8643
ARY	-8644
▁disappear	-8645
▁trained	-8646
▁advised	-8647
▁obeyed	-8648
▁resent	-8649
▁arguments	-8650
▁Sid	-8651
▁preacher	-8652
ylvan	-8653
▁indicate	-8654
▁remedy	-8655
▁absorbed	-8656
▁toil	-8657
▁representative	-8658
▁Scotch	-8659
▁knights	-8660
▁prolong	-8661
▁Field	-8662
ournal	-8663
▁Kings	-8664
▁repose	-8665
▁hem	-8666
▁frost	-8667
▁temp	-8668
▁tract	-8669
▁designs	-8670
▁Ash	-8671
▁awkward	-8672
▁propose	-8673
▁upward	-8674
pson	-8675
▁Lam	-8676
▁guilt	-8677
▁purely	-8678
▁nut	-8679
▁Pacific	-8680
▁gran	-8681
▁oppon	-8682
▁vanity	-8683
11	-8684
▁County	-8685
irts	-8686
▁saints	-8687
iron	-8688
▁Should	-8689
▁wandered	-8690
▁hiding	-8691
▁Barn	-8692
▁California	-8693
▁congreg	-8694
emoiselle	-8695
coat	-8696
▁combat	-8697
▁pitch	-8698
▁bund	-8699
▁Gran	-8700
▁swiftly	-8701
sels	-8702
Thank	-8703
▁Because	-8704
▁CO	-8705
arte	-8706
▁shooting	-8707
▁Jackson	-8708
▁smoking	-8709
▁unpleasant	-8710
▁chin	-8711
▁yielded	-8712
▁ashore	-8713
▁seam	-8714
ACE	-8715
▁transm	-8716
▁Japanese	-8717
▁conspicuous	-8718
▁conquered	-8719
▁Has	-8720
▁Gospel	-8721
▁Babyl	-8722
▁generations	-8723
▁ol	-8724
oming	-8725
▁linen	-8726
▁dearest	-8727
▁pool	-8728
▁discussed	-8729
."--_	-8730
ribly	-8731
▁Were	-8732
▁meantime	-8733
bbed	-8734
▁Conn	-8735
▁nobles	-8736
▁prohib	-8737
umbled	-8738
▁convent	-8739
▁trusted	-8740
▁cock	-8741
▁angle	-8742
ibilities	-8743
▁protected	-8744
▁renewed	-8745
▁effective	-8746
▁corpor	-8747
▁Ru	-8748
▁inward	-8749
▁Apost	-8750
▁dashed	-8751
▁viz	-8752
▁defeated	-8753
forth	-8754
▁squad	-8755
acks	-8756
▁acknowledge	-8757
▁fence	-8758
▁fox	-8759
▁represents	-8760
▁garments	-8761
ctures	-8762
▁errors	-8763
iciency	-8764
▁Till	-8765
▁Countess	-8766
▁Reform	-8767
▁deceived	-8768
▁trembled	-8769
▁Rus	-8770
▁strangely	-8771
asper	-8772
▁heels	-8773
▁recognition	-8774
▁newspapers	-8775
▁ridge	-8776
ima	-8777
▁58	-8778
▁Gray	-8779
▁bust	-8780
▁sets	-8781
▁conquest	-8782
▁consec	-8783
▁56	-8784
▁pha	-8785
▁assembly	-8786
▁Gord	-8787
▁Berlin	-8788
▁ridiculous	-8789
▁Clare	-8790
▁lasted	-8791
▁Thor	-8792
▁subsc	-8793
▁silly	-8794
▁favourable	-8795
▁motor	-8796
▁statue	-8797
▁jealousy	-8798
▁Herr	-8799
▁publication	-8800
▁nob	-8801
▁Point	-8802
▁grie	-8803
▁vault	-8804
▁ly	-8805
▁roused	-8806
▁resemblance	-8807
▁***	-8808
▁Place	-8809
▁therein	-8810
▁speedily	-8811
▁Divine	-8812
boy	-8813
▁neighbours	-8814
▁stuck	-8815
resent	-8816
▁stolen	-8817
▁Cambridge	-8818
'.	-8819
uset	-8820
▁landlord	-8821
▁curse	-8822
▁sunset	-8823
osa	-8824
▁specimen	-8825
▁illustrated	-8826
▁ecclesiast	-8827
UD	-8828
▁Di	-8829
▁Eastern	-8830
▁afore	-8831
▁oft	-8832
▁weeping	-8833
▁reminded	-8834
▁journal	-8835
▁reverence	-8836
▁diplom	-8837
▁murdered	-8838
▁uses	-8839
aire	-8840
▁corresponding	-8841
▁Wel	-8842
chard	-8843
▁stole	-8844
▁expenses	-8845
-+--------	-8846
▁traveller	-8847
▁FROM	-8848
plain	-8849
▁floating	-8850
▁Pop	-8851
▁duck	-8852
▁Monday	-8853
fold	-8854
▁kne	-8855
▁wrapped	-8856
▁Hum	-8857
ENTS	-8858
▁elegant	-8859
why	-8860
▁dre	-8861
table	-8862
▁XIV	-8863
▁57	-8864
▁Museum	-8865
▁leisure	-8866
▁Venice	-8867
▁joke	-8868
▁6,	-8869
hin	-8870
▁recalled	-8871
▁amusing	-8872
▁rebu	-8873
▁traces	-8874
▁climbed	-8875
▁easier	-8876
▁witnesses	-8877
AIN	-8878
▁Pap	-8879
urred	-8880
▁edges	-8881
▁cells	-8882
▁bells	-8883
▁bud	-8884
▁disple	-8885
▁machinery	-8886
▁longing	-8887
▁discont	-8888
ctors	-8889
gage	-8890
▁XXV	-8891
▁heir	-8892
▁upwards	-8893
▁Gutenberg	-8894
▁breathing	-8895
break	-8896
oche	-8897
▁Providence	-8898
▁extending	-8899
▁6_	-8900
▁adventures	-8901
▁function	-8902
Am	-8903
Just	-8904
▁closing	-8905
▁Anton	-8906
▁springs	-8907
Ad	-8908
▁whirl	-8909
▁monument	-8910
▁tragedy	-8911
▁careless	-8912
▁seal	-8913
▁XI	-8914
▁achieve	-8915
▁eminent	-8916
cra	-8917
▁artificial	-8918
ICK	-8919
▁Var	-8920
▁swung	-8921
▁Home	-8922
▁Sac	-8923
▁Esq	-8924
▁stable	-8925
might	-8926
▁extend	-8927
▁neighborhood	-8928
▁management	-8929
▁widely	-8930
liver	-8931
asse	-8932
▁Sn	-8933
▁artistic	-8934
▁conveyed	-8935
imately	-8936
▁aroused	-8937
rants	-8938
▁abundance	-8939
Fig	-8940
▁Club	-8941
▁Georg	-8942
LD	-8943
▁glit	-8944
▁crimson	-8945
▁travelled	-8946
▁admired	-8947
rain	-8948
▁wha	-8949
▁damp	-8950
▁HE	-8951
▁illustration	-8952
▁abruptly	-8953
▁puts	-8954
achuset	-8955
quer	-8956
▁talent	-8957
acing	-8958
▁betrayed	-8959
inating	-8960
achusetts	-8961
▁Ori	-8962
▁Could	-8963
▁lowest	-8964
▁esteem	-8965
▁Polly	-8966
▁vit	-8967
▁photograph	-8968
▁presc	-8969
▁168	-8970
▁Ward	-8971
nut	-8972
▁warn	-8973
▁specially	-8974
wen	-8975
▁passionate	-8976
▁newly	-8977
▁ancestors	-8978
pha	-8979
orable	-8980
▁spots	-8981
▁bestowed	-8982
▁Edinburgh	-8983
▁Str	-8984
nold	-8985
▁reserved	-8986
intend	-8987
▁Chicago	-8988
PER	-8989
▁emphas	-8990
▁max	-8991
▁Betty	-8992
35	-8993
▁liable	-8994
▁heavenly	-8995
▁witnessed	-8996
mun	-8997
▁dispute	-8998
▁Bour	-8999
▁gorge	-9000
usal	-9001
▁center	-9002
▁ram	-9003
po	-9004
des	-9005
▁IS	-9006
eches	-9007
▁eldest	-9008
▁chase	-9009
▁severely	-9010
▁unity	-9011
▁professional	-9012
AGE	-9013
John	-9014
▁cyl	-9015
▁TR	-9016
▁emotions	-9017
▁barn	-9018
▁triumphant	-9019
▁insol	-9020
▁discourse	-9021
▁charges	-9022
▁lament	-9023
▁assurance	-9024
▁prayed	-9025
▁warned	-9026
▁Nay	-9027
▁temples	-9028
▁restore	-9029
issippi	-9030
uz	-9031
▁dangers	-9032
Ne	-9033
▁Sign	-9034
▁shepher	-9035
idable	-9036
Greek	-9037
Mar	-9038
ORK	-9039
▁Matt	-9040
▁teachers	-9041
rene	-9042
▁Carolina	-9043
▁tyran	-9044
▁ferv	-9045
rusted	-9046
▁WILL	-9047
▁sink	-9048
▁copies	-9049
▁crest	-9050
ti	-9051
▁wool	-9052
▁anxiously	-9053
▁moonlight	-9054
▁adapted	-9055
▁suspended	-9056
lder	-9057
▁outl	-9058
▁scholars	-9059
▁deserve	-9060
FF	-9061
▁seeds	-9062
▁repair	-9063
ITY	-9064
▁chairs	-9065
tical	-9066
pen	-9067
ridge	-9068
▁petition	-9069
▁wret	-9070
▁fug	-9071
▁Marquis	-9072
▁inval	-9073
enery	-9074
▁answers	-9075
▁responded	-9076
▁pretend	-9077
▁pip	-9078
▁idol	-9079
▁subsequently	-9080
▁ambit	-9081
minded	-9082
bery	-9083
▁tube	-9084
▁mun	-9085
leans	-9086
ademy	-9087
▁promises	-9088
▁Barbar	-9089
utor	-9090
▁insects	-9091
▁Burg	-9092
ilian	-9093
owl	-9094
zes	-9095
▁70	-9096
Because	-9097
▁converted	-9098
andy	-9099
▁returns	-9100
bably	-9101
▁earthly	-9102
▁flut	-9103
▁particulars	-9104
▁Nic	-9105
▁lovers	-9106
▁justified	-9107
OUS	-9108
▁owners	-9109
▁doorway	-9110
▁verd	-9111
▁income	-9112
▁dwelt	-9113
ositions	-9114
▁Les	-9115
▁saving	-9116
▁wax	-9117
▁professor	-9118
▁whit	-9119
▁Hell	-9120
70	-9121
▁Massachusetts	-9122
▁dishon	-9123
▁chances	-9124
▁perpetual	-9125
."--	-9126
▁griev	-9127
▁Py	-9128
ships	-9129
▁exercised	-9130
▁Dam	-9131
▁conject	-9132
▁Cardinal	-9133
ACK	-9134
▁brut	-9135
▁Vill	-9136
▁§	-9137
▁convict	-9138
▁translated	-9139
▁vicinity	-9140
▁continent	-9141
▁Islands	-9142
▁shy	-9143
▁dramatic	-9144
oard	-9145
▁Tay	-9146
▁interfere	-9147
maid	-9148
▁fog	-9149
icular	-9150
▁struggling	-9151
PH	-9152
▁Pitt	-9153
ylvania	-9154
▁hesitation	-9155
▁hopeless	-9156
▁Mississippi	-9157
post	-9158
oore	-9159
assador	-9160
▁vap	-9161
usively	-9162
▁il	-9163
▁Atlantic	-9164
▁encouraged	-9165
UE	-9166
▁puzzled	-9167
erers	-9168
▁colle	-9169
▁Testament	-9170
▁fortunes	-9171
▁indef	-9172
▁mainly	-9173
▁impatient	-9174
arth	-9175
▁formidable	-9176
▁cares	-9177
▁Belg	-9178
▁warmth	-9179
▁Right	-9180
▁Last	-9181
▁nurs	-9182
▁surprising	-9183
▁probability	-9184
▁gross	-9185
▁nay	-9186
▁folded	-9187
▁invariably	-9188
▁parting	-9189
▁precaut	-9190
▁canal	-9191
▁advers	-9192
▁commands	-9193
▁veins	-9194
▁interval	-9195
iae	-9196
▁sources	-9197
ava	-9198
▁Albert	-9199
oped	-9200
minster	-9201
▁rings	-9202
▁furious	-9203
▁impart	-9204
▁NOT	-9205
32	-9206
▁organs	-9207
▁declined	-9208
▁rushing	-9209
▁luxury	-9210
▁Wilson	-9211
▁Faith	-9212
▁spared	-9213
rons	-9214
▁Central	-9215
▁Common	-9216
▁som	-9217
▁stem	-9218
▁wept	-9219
▁discern	-9220
rooms	-9221
iolet	-9222
▁frontier	-9223
▁Wild	-9224
▁dilig	-9225
▁peop	-9226
agne	-9227
▁investigation	-9228
▁rescue	-9229
▁pursue	-9230
▁challen	-9231
▁questioned	-9232
▁owned	-9233
▁abode	-9234
▁Ay	-9235
▁irre	-9236
▁fetch	-9237
▁pupils	-9238
unci	-9239
▁naval	-9240
▁affections	-9241
▁justly	-9242
▁sickness	-9243
▁producing	-9244
▁avoided	-9245
▁climb	-9246
berry	-9247
▁PH	-9248
▁stopping	-9249
▁cruelty	-9250
▁gladly	-9251
▁deprived	-9252
▁Tal	-9253
ederal	-9254
wer	-9255
▁quit	-9256
oric	-9257
▁practised	-9258
▁Instead	-9259
▁pole	-9260
▁association	-9261
▁differences	-9262
▁enlight	-9263
New	-9264
▁laz	-9265
▁----,	-9266
▁174	-9267
▁jury	-9268
▁agreement	-9269
brance	-9270
▁sphere	-9271
▁Imperial	-9272
▁hymn	-9273
▁Greg	-9274
▁enchant	-9275
▁openly	-9276
▁Give	-9277
▁neut	-9278
▁flies	-9279
▁thirteen	-9280
oves	-9281
▁abb	-9282
▁adds	-9283
+--------	-9284
▁Spring	-9285
▁pall	-9286
▁sufferings	-9287
▁Norman	-9288
▁vigor	-9289
▁breadth	-9290
▁160	-9291
Pr	-9292
▁ordin	-9293
▁clust	-9294
▁Mod	-9295
▁75	-9296
cester	-9297
▁inhab	-9298
ilda	-9299
shaped	-9300
▁assisted	-9301
ICH	-9302
▁magnet	-9303
▁wont	-9304
▁plunged	-9305
▁shirt	-9306
▁164	-9307
▁varieties	-9308
arms	-9309
▁gam	-9310
▁worsh	-9311
▁Et	-9312
▁landscape	-9313
ela	-9314
▁seize	-9315
▁obscure	-9316
▁10,	-9317
cham	-9318
▁ornament	-9319
▁affectionate	-9320
▁heroic	-9321
▁experiences	-9322
▁attacks	-9323
▁withdraw	-9324
▁Than	-9325
ui	-9326
mans	-9327
illings	-9328
▁periods	-9329
▁scarlet	-9330
▁believing	-9331
idd	-9332
aning	-9333
TE	-9334
▁scandal	-9335
▁flushed	-9336
▁foul	-9337
alysis	-9338
▁positions	-9339
▁lords	-9340
▁representation	-9341
ensation	-9342
,_	-9343
▁inherit	-9344
▁scant	-9345
▁wholes	-9346
▁lantern	-9347
▁alle	-9348
▁monaster	-9349
▁dreamed	-9350
▁Ten	-9351
▁wander	-9352
itively	-9353
▁exhaust	-9354
▁quantities	-9355
▁divisions	-9356
▁restless	-9357
▁trap	-9358
stra	-9359
▁boldly	-9360
rad	-9361
▁shouldn	-9362
▁7,	-9363
hi	-9364
▁savages	-9365
even	-9366
▁flowing	-9367
ressing	-9368
_,"	-9369
▁51	-9370
▁vital	-9371
▁rigid	-9372
▁lip	-9373
▁Lawrence	-9374
▁awakened	-9375
▁XII	-9376
lock	-9377
▁agitation	-9378
▁pupil	-9379
▁jewels	-9380
▁59	-9381
iastic	-9382
▁Alexand	-9383
good	-9384
▁Tit	-9385
▁estimate	-9386
uen	-9387
▁parliament	-9388
▁amidst	-9389
▁unnecessary	-9390
▁drag	-9391
▁bands	-9392
▁recommended	-9393
▁missing	-9394
▁aug	-9395
▁revelation	-9396
inge	-9397
▁Cas	-9398
▁boxes	-9399
▁requis	-9400
ICE	-9401
▁tang	-9402
▁walks	-9403
▁corners	-9404
▁apolog	-9405
cker	-9406
▁punish	-9407
▁nonsense	-9408
▁Hamilton	-9409
▁psych	-9410
▁torment	-9411
▁CHAR	-9412
Take	-9413
umer	-9414
▁8,	-9415
ouri	-9416
Tell	-9417
▁apple	-9418
eb	-9419
▁immortal	-9420
▁replaced	-9421
▁interpre	-9422
▁channel	-9423
▁recollection	-9424
▁relating	-9425
▁leaped	-9426
▁representing	-9427
▁Fif	-9428
▁gallery	-9429
▁marvel	-9430
▁Mas	-9431
LL	-9432
▁goin	-9433
▁faire	-9434
hor	-9435
▁normal	-9436
▁incom	-9437
▁youthful	-9438
▁incor	-9439
▁blew	-9440
▁Whatever	-9441
hable	-9442
▁[8	-9443
▁disagreeable	-9444
▁AD	-9445
▁Fur	-9446
ARE	-9447
▁baron	-9448
▁Cre	-9449
▁trim	-9450
▁learnt	-9451
▁cathedral	-9452
▁pluck	-9453
▁alleg	-9454
▁Ball	-9455
▁MAN	-9456
▁lace	-9457
▁mend	-9458
▁liquor	-9459
▁Lang	-9460
▁Hunt	-9461
▁inspiration	-9462
▁sailing	-9463
▁glimpse	-9464
iche	-9465
▁imperial	-9466
▁80	-9467
▁hay	-9468
landers	-9469
▁Inn	-9470
▁attributed	-9471
Eng	-9472
▁carved	-9473
▁Commons	-9474
icer	-9475
amin	-9476
▁woe	-9477
▁stamp	-9478
▁drama	-9479
▁tie	-9480
▁speaker	-9481
▁Maur	-9482
▁subtle	-9483
▁[7	-9484
ciences	-9485
▁stretch	-9486
weet	-9487
▁describes	-9488
."[	-9489
▁crushed	-9490
▁traced	-9491
▁Stu	-9492
▁halted	-9493
ivering	-9494
▁organized	-9495
▁Ret	-9496
▁invisible	-9497
unken	-9498
Col	-9499
▁procure	-9500
▁rod	-9501
▁mechanical	-9502
▁Rail	-9503
▁doctrines	-9504
▁harbour	-9505
shire	-9506
▁doubts	-9507
▁marvellous	-9508
▁intent	-9509
▁travellers	-9510
rick	-9511
▁awoke	-9512
▁tort	-9513
▁pistol	-9514
▁bench	-9515
▁killing	-9516
▁166	-9517
▁bars	-9518
▁Tro	-9519
ipl	-9520
▁alas	-9521
▁delicious	-9522
▁surm	-9523
raham	-9524
▁Early	-9525
▁differ	-9526
▁bloody	-9527
▁dyn	-9528
▁selection	-9529
▁tact	-9530
▁Gordon	-9531
▁Goth	-9532
smith	-9533
▁stately	-9534
▁wi	-9535
▁prodig	-9536
▁artists	-9537
▁conform	-9538
rum	-9539
▁divide	-9540
▁Imp	-9541
▁guards	-9542
omon	-9543
▁meanwhile	-9544
oli	-9545
isons	-9546
▁Oliver	-9547
▁omn	-9548
▁declaration	-9549
▁soot	-9550
▁beer	-9551
▁rows	-9552
▁goss	-9553
▁arrow	-9554
▁dealing	-9555
▁shrew	-9556
spr	-9557
▁dun	-9558
▁appropriate	-9559
▁rebellion	-9560
inement	-9561
▁separation	-9562
▁embrace	-9563
drew	-9564
▁spin	-9565
▁asserted	-9566
▁rocky	-9567
▁solitude	-9568
ball	-9569
▁flock	-9570
▁victims	-9571
▁Associ	-9572
▁significance	-9573
apped	-9574
▁whip	-9575
▁nerve	-9576
▁judged	-9577
▁soci	-9578
itia	-9579
▁wreck	-9580
▁Theod	-9581
ennes	-9582
▁Turkish	-9583
▁seconds	-9584
▁expressions	-9585
▁orange	-9586
▁Han	-9587
oster	-9588
▁spectacle	-9589
▁inconven	-9590
▁undertake	-9591
29	-9592
▁trifle	-9593
▁hereafter	-9594
vention	-9595
war	-9596
▁Pierre	-9597
▁suited	-9598
press	-9599
▁margin	-9600
▁Pray	-9601
▁wealthy	-9602
▁francs	-9603
▁Daniel	-9604
▁measured	-9605
▁Whit	-9606
ulties	-9607
▁bills	-9608
▁privileges	-9609
▁AM	-9610
GH	-9611
ilight	-9612
▁temptation	-9613
▁blast	-9614
▁games	-9615
▁endeavoured	-9616
▁requested	-9617
▁Anth	-9618
▁forbid	-9619
_{	-9620
▁harmon	-9621
▁Grey	-9622
▁threatening	-9623
▁lecture	-9624
ISS	-9625
▁butt	-9626
▁Duchess	-9627
▁file	-9628
▁muscles	-9629
Sc	-9630
▁monks	-9631
alty	-9632
▁etern	-9633
▁humor	-9634
iven	-9635
▁lads	-9636
▁meetings	-9637
▁rejected	-9638
▁analog	-9639
▁punished	-9640
spe	-9641
ORE	-9642
ranean	-9643
joining	-9644
▁draught	-9645
▁Short	-9646
▁deserved	-9647
▁partial	-9648
atoes	-9649
▁Pa	-9650
▁purse	-9651
▁Earth	-9652
retion	-9653
▁mines	-9654
▁surpass	-9655
▁outline	-9656
▁glowing	-9657
▁wilt	-9658
▁Dur	-9659
ceptible	-9660
▁Bank	-9661
▁appetite	-9662
▁document	-9663
▁Athens	-9664
woman	-9665
▁continuous	-9666
▁bullet	-9667
▁quaint	-9668
▁Simon	-9669
▁battery	-9670
▁happily	-9671
▁fors	-9672
oper	-9673
faced	-9674
▁hearty	-9675
▁Roy	-9676
nex	-9677
stead	-9678
half	-9679
▁push	-9680
eau	-9681
▁morality	-9682
▁partner	-9683
▁embro	-9684
▁mirror	-9685
▁gravity	-9686
▁Budd	-9687
▁introduce	-9688
▁steal	-9689
▁elaborate	-9690
▁condemn	-9691
▁expecting	-9692
ceptions	-9693
▁din	-9694
▁guarded	-9695
▁Bridge	-9696
▁proposal	-9697
▁faded	-9698
▁filling	-9699
▁courtesy	-9700
▁endless	-9701
▁confirm	-9702
▁drowned	-9703
▁faculty	-9704
▁comprehens	-9705
umerable	-9706
▁Laura	-9707
▁charms	-9708
erences	-9709
▁neighbouring	-9710
▁fib	-9711
izz	-9712
▁flee	-9713
ithe	-9714
▁COL	-9715
▁encounter	-9716
▁motionless	-9717
▁11.	-9718
▁heights	-9719
dale	-9720
▁Justice	-9721
▁Lind	-9722
▁cash	-9723
▁letting	-9724
▁pockets	-9725
▁sung	-9726
▁smallest	-9727
riday	-9728
▁compliment	-9729
▁countrymen	-9730
▁accus	-9731
▁heroes	-9732
▁crimes	-9733
ront	-9734
▁Valley	-9735
▁wishing	-9736
▁uncommon	-9737
▁humil	-9738
▁driver	-9739
▁Ellen	-9740
▁Franklin	-9741
▁flav	-9742
▁explos	-9743
▁Homer	-9744
▁needle	-9745
athemat	-9746
▁sermon	-9747
▁dated	-9748
▁Brun	-9749
NE	-9750
▁Fitz	-9751
▁withdrew	-9752
▁Beau	-9753
▁sweep	-9754
ulsion	-9755
▁carbon	-9756
Her	-9757
▁willingly	-9758
▁dumb	-9759
▁vols	-9760
hers	-9761
▁Pra	-9762
▁controvers	-9763
▁haught	-9764
inch	-9765
▁ribb	-9766
▁Tower	-9767
agra	-9768
▁witch	-9769
▁woo	-9770
▁Library	-9771
▁Ray	-9772
▁agents	-9773
Our	-9774
▁amazement	-9775
▁rice	-9776
inkled	-9777
▁Babylon	-9778
▁purity	-9779
▁impressions	-9780
▁torture	-9781
▁submitted	-9782
▁madam	-9783
ieves	-9784
▁circular	-9785
Some	-9786
▁carries	-9787
▁crowned	-9788
La	-9789
chers	-9790
▁defin	-9791
▁Hug	-9792
DER	-9793
▁innocence	-9794
34	-9795
cian	-9796
▁coin	-9797
▁violently	-9798
▁fortnight	-9799
▁strongest	-9800
▁regularly	-9801
fashion	-9802
got	-9803
▁influences	-9804
▁ruff	-9805
▁version	-9806
▁pulp	-9807
▁Persian	-9808
isms	-9809
▁glasses	-9810
▁unwilling	-9811
▁sustained	-9812
pels	-9813
▁battles	-9814
gence	-9815
▁stirring	-9816
▁elevation	-9817
▁Fam	-9818
▁ecclesiastical	-9819
▁cris	-9820
ilful	-9821
Nothing	-9822
▁subdu	-9823
▁Relig	-9824
▁Abraham	-9825
▁Half	-9826
▁serving	-9827
▁Ing	-9828
apsed	-9829
▁py	-9830
▁whither	-9831
▁sinking	-9832
anton	-9833
▁Ter	-9834
▁Within	-9835
have	-9836
▁Row	-9837
your	-9838
▁clasped	-9839
▁ink	-9840
IAM	-9841
ipper	-9842
▁sulph	-9843
▁expectation	-9844
▁Lewis	-9845
bal	-9846
orney	-9847
▁obtaining	-9848
umbling	-9849
▁Herbert	-9850
ponse	-9851
▁consented	-9852
▁specific	-9853
▁haw	-9854
▁honourable	-9855
door	-9856
▁successfully	-9857
imer	-9858
▁opera	-9859
▁conclude	-9860
▁Say	-9861
▁mothers	-9862
▁Peters	-9863
rington	-9864
▁latest	-9865
▁disorder	-9866
▁accordance	-9867
oven	-9868
▁valleys	-9869
Sh	-9870
▁MRS	-9871
▁Anna	-9872
▁screw	-9873
▁likes	-9874
38	-9875
▁fragr	-9876
▁Palace	-9877
adj	-9878
LAND	-9879
▁embark	-9880
▁dealt	-9881
▁shillings	-9882
NOT	-9883
▁tumult	-9884
athetic	-9885
▁treasures	-9886
▁swords	-9887
rors	-9888
▁150	-9889
▁observing	-9890
▁cultivation	-9891
▁fortress	-9892
24	-9893
▁costume	-9894
▁curiously	-9895
▁“_	-9896
▁Wed	-9897
▁Canad	-9898
▁bargain	-9899
▁rejoined	-9900
▁Brad	-9901
▁scenery	-9902
▁solic	-9903
▁monot	-9904
▁carpet	-9905
▁CAP	-9906
▁$1.	-9907
▁je	-9908
iour	-9909
▁neighbors	-9910
▁reasoning	-9911
▁prime	-9912
▁greatness	-9913
/4	-9914
gic	-9915
▁Dorothy	-9916
hast	-9917
▁approved	-9918
▁fiery	-9919
▁shared	-9920
▁chuck	-9921
▁cub	-9922
Bl	-9923
ustice	-9924
about	-9925
▁tons	-9926
▁murmur	-9927
DE	-9928
▁bon	-9929
inter	-9930
▁offers	-9931
▁welf	-9932
▁Order	-9933
amented	-9934
▁talents	-9935
▁finan	-9936
▁forbidden	-9937
▁visiting	-9938
making	-9939
egr	-9940
▁prior	-9941
▁welfare	-9942
▁Williams	-9943
▁functions	-9944
VER	-9945
▁Flor	-9946
▁moss	-9947
▁wolf	-9948
▁inquiries	-9949
▁thief	-9950
▁9,	-9951
▁canvas	-9952
▁Board	-9953
ecil	-9954
cellor	-9955
▁invented	-9956
▁Lane	-9957
essie	-9958
pert	-9959
▁Der	-9960
iating	-9961
▁collar	-9962
IB	-9963
▁sails	-9964
▁resort	-9965
▁12.	-9966
▁telegraph	-9967
▁response	-9968
▁Penns	-9969
▁Sing	-9970
▁awe	-9971
▁overth	-9972
▁Cond	-9973
▁apparatus	-9974
▁Care	-9975
▁compare	-9976
▁heathen	-9977
▁antiquity	-9978
▁Hand	-9979
▁backward	-9980
▁velvet	-9981
hent	-9982
▁fulfil	-9983
▁remembrance	-9984
▁belt	-9985
▁fountain	-9986
37	-9987
kee	-9988
▁incidents	-9989
▁Jon	-9990
⁄2	-9991
ountered	-9992
▁XIII	-9993
▁advis	-9994
versed	-9995
▁officials	-9996
Book	-9997
▁benevol	-9998
ffic	-9999
▁dat	-10000
▁Blue	-10001
▁anguish	-10002
▁secretly	-10003
▁asks	-10004
▁grandmother	-10005
ito	-10006
Lord	-10007
ader	-10008
▁array	-10009
stru	-10010
ensed	-10011
▁evolution	-10012
blin	-10013
▁towers	-10014
▁BL	-10015
▁merits	-10016
▁Hope	-10017
▁brood	-10018
▁continues	-10019
▁spear	-10020
▁fel	-10021
▁ratt	-10022
▁boiled	-10023
▁occurrence	-10024
▁symptoms	-10025
uy	-10026
Tr	-10027
▁Tex	-10028
sex	-10029
entially	-10030
▁procured	-10031
cal	-10032
▁compassion	-10033
▁dew	-10034
▁Orleans	-10035
▁encountered	-10036
▁illustrations	-10037
▁faults	-10038
▁disciples	-10039
▁characteristics	-10040
ira	-10041
▁faced	-10042
▁inscription	-10043
▁shri	-10044
▁innumerable	-10045
such	-10046
▁shif	-10047
▁architecture	-10048
ée	-10049
▁tore	-10050
▁naught	-10051
▁hoping	-10052
▁64	-10053
▁greeted	-10054
▁Sa	-10055
▁assass	-10056
▁warrior	-10057
away	-10058
.).	-10059
▁penny	-10060
pool	-10061
▁African	-10062
▁Call	-10063
▁appoint	-10064
▁65	-10065
iend	-10066
▁Sel	-10067
▁subord	-10068
▁twilight	-10069
ollo	-10070
▁incapable	-10071
folk	-10072
000,	-10073
▁Cop	-10074
▁winding	-10075
▁frown	-10076
▁Catherine	-10077
▁possesses	-10078
real	-10079
▁miracle	-10080
▁statements	-10081
▁piano	-10082
▁eman	-10083
cus	-10084
▁lawn	-10085
▁sho	-10086
▁upstairs	-10087
▁prejudice	-10088
▁pattern	-10089
rical	-10090
olated	-10091
▁memories	-10092
▁Mack	-10093
▁Brand	-10094
▁Taylor	-10095
▁Crom	-10096
▁respective	-10097
▁doubted	-10098
▁searching	-10099
▁torrent	-10100
▁welcom	-10101
▁persuade	-10102
▁nomin	-10103
▁theirs	-10104
▁footsteps	-10105
did	-10106
▁envy	-10107
▁dismissed	-10108
rec	-10109
▁communicated	-10110
▁Ross	-10111
▁acquire	-10112
OOD	-10113
▁waved	-10114
▁alliance	-10115
▁puff	-10116
▁harvest	-10117
▁SEC	-10118
iage	-10119
▁distributed	-10120
▁product	-10121
▁polic	-10122
▁eloquence	-10123
▁Domin	-10124
▁surgeon	-10125
▁saith	-10126
▁solemnly	-10127
▁vow	-10128
▁Note	-10129
would	-10130
▁MY	-10131
aste	-10132
▁Missouri	-10133
qual	-10134
itimate	-10135
▁WH	-10136
▁seeming	-10137
▁balls	-10138
▁shouting	-10139
▁commit	-10140
aparte	-10141
▁xxx	-10142
:—	-10143
bear	-10144
▁shrewd	-10145
▁deaf	-10146
▁aboard	-10147
▁extremity	-10148
▁calam	-10149
mund	-10150
▁Francisco	-10151
▁Sem	-10152
▁nobility	-10153
▁Plato	-10154
▁170	-10155
-5	-10156
gone	-10157
▁tempted	-10158
eys	-10159
▁receipt	-10160
▁Kat	-10161
asses	-10162
▁chains	-10163
▁Frances	-10164
▁apprehension	-10165
▁12,	-10166
▁loudly	-10167
▁blowing	-10168
▁prices	-10169
▁languages	-10170
▁Hur	-10171
▁vag	-10172
soever	-10173
▁sunlight	-10174
idelity	-10175
EG	-10176
idences	-10177
▁breathed	-10178
inding	-10179
▁injustice	-10180
iders	-10181
▁tap	-10182
▁breathe	-10183
down	-10184
aders	-10185
ASS	-10186
▁despite	-10187
▁relatives	-10188
▁fatigue	-10189
▁destiny	-10190
▁evils	-10191
estine	-10192
ords	-10193
▁Sarah	-10194
▁oldest	-10195
ym	-10196
▁attent	-10197
▁Westminster	-10198
vous	-10199
▁literally	-10200
uits	-10201
▁maybe	-10202
▁Lords	-10203
▁Athen	-10204
upp	-10205
▁appreciate	-10206
▁personally	-10207
▁Assembly	-10208
itations	-10209
▁Amb	-10210
▁Gentle	-10211
▁wasted	-10212
anche	-10213
▁sensitive	-10214
said	-10215
▁relieve	-10216
▁caution	-10217
▁dug	-10218
lotte	-10219
▁longed	-10220
▁elevated	-10221
▁amiable	-10222
inety	-10223
odes	-10224
serv	-10225
ouched	-10226
▁backs	-10227
▁skull	-10228
▁inclination	-10229
▁creed	-10230
▁Peace	-10231
▁offend	-10232
▁regiments	-10233
▁FIN	-10234
▁fant	-10235
▁guessed	-10236
rup	-10237
mont	-10238
asty	-10239
▁jun	-10240
▁shops	-10241
▁affirm	-10242
1)	-10243
▁resolute	-10244
▁madness	-10245
▁Pennsylvania	-10246
▁Department	-10247
▁Everything	-10248
▁tribute	-10249
▁complaint	-10250
▁produces	-10251
▁revere	-10252
▁haul	-10253
▁quot	-10254
▁prair	-10255
▁contributed	-10256
▁eh	-10257
uese	-10258
▁syn	-10259
▁facing	-10260
▁ine	-10261
▁successive	-10262
▁beef	-10263
▁offended	-10264
▁termed	-10265
▁lucky	-10266
▁relate	-10267
▁unworthy	-10268
▁Richmond	-10269
▁totally	-10270
▁weep	-10271
▁tops	-10272
▁dazz	-10273
▁acute	-10274
▁LORD	-10275
▁yourselves	-10276
▁arbit	-10277
▁discharged	-10278
▁advise	-10279
▁lordship	-10280
▁sear	-10281
39	-10282
▁Eli	-10283
duced	-10284
▁Rou	-10285
▁bending	-10286
▁lowered	-10287
▁admission	-10288
ogs	-10289
▁Between	-10290
ani	-10291
▁accurate	-10292
aton	-10293
orum	-10294
rown	-10295
▁Tar	-10296
▁serpent	-10297
pin	-10298
▁ardent	-10299
icking	-10300
▁favorable	-10301
▁techn	-10302
After	-10303
▁abstract	-10304
▁Turks	-10305
uty	-10306
▁crisis	-10307
▁Hud	-10308
▁Walk	-10309
▁tents	-10310
▁marching	-10311
▁lunch	-10312
orce	-10313
▁enqu	-10314
▁thresh	-10315
▁rightly	-10316
▁fitting	-10317
▁Susan	-10318
▁wip	-10319
▁emig	-10320
▁bedroom	-10321
▁clothed	-10322
ati	-10323
▁opportunities	-10324
▁goddess	-10325
▁spoil	-10326
▁xv	-10327
▁overlook	-10328
▁beautifully	-10329
28	-10330
▁True	-10331
▁superiority	-10332
inine	-10333
▁dependent	-10334
▁Five	-10335
▁boot	-10336
▁Mist	-10337
▁documents	-10338
▁cul	-10339
▁Mademoiselle	-10340
▁dru	-10341
▁Archbishop	-10342
▁shaken	-10343
▁Sic	-10344
Thou	-10345
▁positively	-10346
▁hideous	-10347
▁waving	-10348
▁Hann	-10349
▁globe	-10350
▁Constantin	-10351
imp	-10352
aneously	-10353
▁Surely	-10354
▁sequ	-10355
▁adjoining	-10356
▁dies	-10357
were	-10358
▁Lis	-10359
▁bishops	-10360
▁incess	-10361
▁Alfred	-10362
▁raw	-10363
obody	-10364
made	-10365
▁None	-10366
▁shallow	-10367
▁ornaments	-10368
▁impatience	-10369
▁missionary	-10370
trees	-10371
▁cove	-10372
▁intentions	-10373
▁turb	-10374
▁exchanged	-10375
▁funny	-10376
▁battal	-10377
orical	-10378
▁monster	-10379
orial	-10380
▁creek	-10381
▁SH	-10382
▁stag	-10383
▁transferred	-10384
▁Capt	-10385
▁cert	-10386
▁Stone	-10387
▁unfortunately	-10388
white	-10389
▁relax	-10390
fashioned	-10391
▁preached	-10392
▁mansion	-10393
▁uneasy	-10394
▁Hung	-10395
▁Bey	-10396
oughs	-10397
tra	-10398
▁165	-10399
▁scholar	-10400
▁imposed	-10401
icism	-10402
▁germ	-10403
▁perish	-10404
▁estates	-10405
▁Stand	-10406
▁hunter	-10407
▁autom	-10408
▁169	-10409
▁(?	-10410
▁Victor	-10411
▁surroundings	-10412
▁economy	-10413
▁Sult	-10414
▁enclosed	-10415
▁hasty	-10416
▁prose	-10417
sworth	-10418
▁bitterness	-10419
▁smiles	-10420
▁Lanc	-10421
▁secrets	-10422
olves	-10423
▁perse	-10424
▁Prop	-10425
▁uneas	-10426
oni	-10427
▁thoughtful	-10428
▁Square	-10429
▁bef	-10430
▁rasc	-10431
▁AS	-10432
stein	-10433
▁release	-10434
▁rapt	-10435
▁lur	-10436
▁escort	-10437
▁bee	-10438
▁monk	-10439
isten	-10440
▁polished	-10441
▁Something	-10442
,--"	-10443
▁ov	-10444
▁arrows	-10445
je	-10446
▁addressing	-10447
▁briefly	-10448
ungs	-10449
▁cigar	-10450
▁Horace	-10451
▁Naples	-10452
▁equival	-10453
▁bru	-10454
natured	-10455
▁worry	-10456
▁sauce	-10457
▁rational	-10458
oir	-10459
▁blown	-10460
.=--	-10461
▁niece	-10462
▁possessions	-10463
▁distribution	-10464
▁intol	-10465
▁riches	-10466
ccess	-10467
▁civilized	-10468
▁GR	-10469
blest	-10470
rove	-10471
▁hearth	-10472
cular	-10473
irg	-10474
▁desirous	-10475
▁proceeds	-10476
▁Jerry	-10477
elled	-10478
▁drum	-10479
▁faculties	-10480
▁Friday	-10481
▁tha	-10482
▁Matthe	-10483
▁Past	-10484
▁errand	-10485
",	-10486
▁Santa	-10487
▁Ped	-10488
▁Continent	-10489
▁hospitality	-10490
▁seventeen	-10491
▁Pom	-10492
▁enjoying	-10493
uing	-10494
▁restrict	-10495
▁representatives	-10496
▁Luke	-10497
▁thanked	-10498
▁Scripture	-10499
▁Vienna	-10500
▁Sabb	-10501
▁decent	-10502
._;	-10503
▁Mun	-10504
▁Juan	-10505
'-	-10506
IVE	-10507
▁bodily	-10508
PP	-10509
▁ther	-10510
4)	-10511
-1/2	-10512
▁exciting	-10513
▁eth	-10514
▁posts	-10515
tell	-10516
ulent	-10517
▁Portuguese	-10518
▁shine	-10519
▁Nicholas	-10520
▁lodge	-10521
▁released	-10522
▁antagon	-10523
▁Solomon	-10524
anor	-10525
▁team	-10526
▁illustrious	-10527
▁barren	-10528
▁exclaim	-10529
acre	-10530
▁ascended	-10531
▁protested	-10532
▁Cecil	-10533
▁fashionable	-10534
▁destro	-10535
▁shaft	-10536
▁lent	-10537
▁invasion	-10538
▁contradict	-10539
▁entertainment	-10540
isive	-10541
utt	-10542
▁threshold	-10543
▁Unt	-10544
▁AC	-10545
▁background	-10546
keys	-10547
▁Australia	-10548
▁bury	-10549
▁peasants	-10550
▁checked	-10551
▁traditions	-10552
▁poll	-10553
▁sits	-10554
ICAL	-10555
▁preach	-10556
ooped	-10557
▁circles	-10558
▁horns	-10559
?’	-10560
▁hol	-10561
▁Ast	-10562
▁Constantinople	-10563
past	-10564
▁pear	-10565
▁Julia	-10566
▁borrowed	-10567
agraph	-10568
interest	-10569
▁enters	-10570
▁..	-10571
▁duly	-10572
imum	-10573
▁gleam	-10574
▁diseases	-10575
▁Gab	-10576
▁fundamental	-10577
78	-10578
▁kid	-10579
wind	-10580
▁genus	-10581
▁types	-10582
riv	-10583
▁sofa	-10584
▁nour	-10585
▁Creek	-10586
▁pulling	-10587
▁dine	-10588
▁Does	-10589
▁jer	-10590
▁ec	-10591
hile	-10592
▁bonn	-10593
▁boards	-10594
▁brisk	-10595
-----+	-10596
stri	-10597
amph	-10598
▁pave	-10599
▁ster	-10600
▁Much	-10601
▁answering	-10602
oure	-10603
▁equip	-10604
IRE	-10605
▁clergyman	-10606
▁melted	-10607
▁sticks	-10608
▁leap	-10609
▁Gilbert	-10610
▁GE	-10611
▁Third	-10612
phan	-10613
▁essentially	-10614
▁proves	-10615
▁Scar	-10616
keness	-10617
▁porch	-10618
▁Form	-10619
▁Ho	-10620
▁interpretation	-10621
via	-10622
▁Later	-10623
▁allies	-10624
▁—	-10625
[4	-10626
▁HER	-10627
▁jar	-10628
istle	-10629
▁frozen	-10630
▁potatoes	-10631
sen	-10632
nty	-10633
▁stages	-10634
mighty	-10635
hara	-10636
▁Bernard	-10637
seven	-10638
arant	-10639
inkle	-10640
▁dislike	-10641
▁clung	-10642
▁Big	-10643
▁imitation	-10644
forced	-10645
▁11,	-10646
▁gigantic	-10647
gue	-10648
▁workmen	-10649
▁phenomen	-10650
▁tip	-10651
▁realm	-10652
▁lots	-10653
isd	-10654
▁FOOT	-10655
anted	-10656
▁Public	-10657
aved	-10658
▁danced	-10659
▁rebels	-10660
phy	-10661
▁15,	-10662
▁bronze	-10663
▁Adams	-10664
26	-10665
▁unsu	-10666
▁attending	-10667
▁resembling	-10668
▁tren	-10669
▁vex	-10670
▁Dal	-10671
▁cham	-10672
▁notions	-10673
▁robbed	-10674
ansas	-10675
▁mol	-10676
▁proofs	-10677
▁mes	-10678
▁frightful	-10679
▁irresist	-10680
▁Charlotte	-10681
▁tram	-10682
▁insign	-10683
▁create	-10684
iere	-10685
▁cav	-10686
▁cordial	-10687
▁revenue	-10688
power	-10689
▁removal	-10690
▁speeches	-10691
ECT	-10692
▁Road	-10693
▁properties	-10694
▁McC	-10695
▁Anthony	-10696
▁Balt	-10697
joice	-10698
▁navy	-10699
▁Guy	-10700
▁superstition	-10701
guard	-10702
▁justify	-10703
▁deposited	-10704
▁Terr	-10705
▁rect	-10706
▁Way	-10707
▁Hun	-10708
▁Byron	-10709
▁Lamb	-10710
oa	-10711
▁Lion	-10712
▁manager	-10713
▁Accordingly	-10714
▁villain	-10715
▁horrid	-10716
▁Pil	-10717
▁Cook	-10718
▁adequ	-10719
▁bows	-10720
▁catching	-10721
▁Fal	-10722
▁contrived	-10723
rise	-10724
▁feud	-10725
fig	-10726
▁abuse	-10727
arers	-10728
▁SIR	-10729
▁consolation	-10730
roll	-10731
▁successor	-10732
▁comprom	-10733
▁Bos	-10734
33	-10735
▁cheerfully	-10736
▁disaster	-10737
▁couch	-10738
▁thorn	-10739
▁guardian	-10740
▁uncon	-10741
▁68	-10742
umberland	-10743
cile	-10744
▁gospel	-10745
▁remon	-10746
▁proclaimed	-10747
▁Lat	-10748
▁appearing	-10749
hur	-10750
▁Association	-10751
▁Murray	-10752
▁leagues	-10753
gard	-10754
munition	-10755
▁Illustrations	-10756
▁rede	-10757
▁[9	-10758
▁compact	-10759
▁childish	-10760
▁patri	-10761
▁skins	-10762
agers	-10763
▁substances	-10764
rell	-10765
▁Eug	-10766
unks	-10767
▁Cru	-10768
▁planned	-10769
▁cheese	-10770
▁retorted	-10771
acht	-10772
ban	-10773
▁oppress	-10774
▁bonds	-10775
▁sack	-10776
verb	-10777
▁vegetable	-10778
▁Hotel	-10779
▁Ni	-10780
▁strife	-10781
▁hered	-10782
▁Saviour	-10783
▁awaiting	-10784
▁jail	-10785
dened	-10786
elia	-10787
▁packed	-10788
▁sket	-10789
▁uncomfort	-10790
▁VAR	-10791
Ay	-10792
▁Scottish	-10793
▁suspicious	-10794
▁14,	-10795
▁sublime	-10796
▁decidedly	-10797
.|	-10798
▁spreading	-10799
▁historian	-10800
▁attachment	-10801
▁commod	-10802
▁Ram	-10803
▁products	-10804
eties	-10805
▁Highness	-10806
▁ascertained	-10807
▁apprehend	-10808
▁sheets	-10809
cible	-10810
▁Women	-10811
aug	-10812
▁ceremonies	-10813
.-	-10814
▁dishes	-10815
▁undertaking	-10816
▁158	-10817
bus	-10818
ORT	-10819
▁lakes	-10820
▁corpse	-10821
▁capit	-10822
▁plague	-10823
▁fulfilled	-10824
may	-10825
▁hesitate	-10826
▁proportions	-10827
olics	-10828
ecess	-10829
▁presume	-10830
Certainly	-10831
onym	-10832
▁brook	-10833
▁farmers	-10834
oft	-10835
▁decline	-10836
▁brigade	-10837
▁personality	-10838
▁159	-10839
▁nit	-10840
▁instructed	-10841
Dear	-10842
▁Suff	-10843
▁excurs	-10844
▁twisted	-10845
Ab	-10846
ENI	-10847
▁sixth	-10848
ATH	-10849
pie	-10850
gery	-10851
hist	-10852
▁jolly	-10853
▁exclusively	-10854
▁Fanny	-10855
heart	-10856
▁link	-10857
▁Hudson	-10858
▁drunken	-10859
▁Mis	-10860
_"	-10861
▁Rad	-10862
▁preaching	-10863
▁subdued	-10864
▁subjected	-10865
SILI	-10866
utable	-10867
▁respected	-10868
▁Academy	-10869
▁Syl	-10870
fish	-10871
────────	-10872
These	-10873
▁Prussia	-10874
▁processes	-10875
▁prudent	-10876
▁Messrs	-10877
▁expend	-10878
▁Cour	-10879
▁superintend	-10880
▁adorned	-10881
▁readiness	-10882
▁Milton	-10883
▁13,	-10884
▁PSILI	-10885
▁traffic	-10886
▁treason	-10887
▁veh	-10888
▁gilt	-10889
▁varying	-10890
▁Ut	-10891
neath	-10892
▁sanction	-10893
▁corrected	-10894
▁cooking	-10895
▁commencement	-10896
version	-10897
▁foliage	-10898
▁fertile	-10899
APP	-10900
▁Mexican	-10901
odge	-10902
▁stake	-10903
▁Squire	-10904
▁Ze	-10905
sl	-10906
viour	-10907
perhaps	-10908
▁dreary	-10909
▁dropping	-10910
▁disd	-10911
▁extingu	-10912
▁Henri	-10913
▁Bapt	-10914
▁inspect	-10915
▁barely	-10916
▁ladder	-10917
inqu	-10918
▁Circ	-10919
▁brute	-10920
▁ending	-10921
eline	-10922
▁feeding	-10923
glas	-10924
▁Pas	-10925
▁apartments	-10926
▁sustain	-10927
▁Bow	-10928
▁paragraph	-10929
▁gau	-10930
▁swore	-10931
▁Journal	-10932
▁Victoria	-10933
▁preceded	-10934
▁coinc	-10935
▁defended	-10936
▁session	-10937
▁90	-10938
eled	-10939
▁GRE	-10940
▁desolate	-10941
▁everyone	-10942
▁Hast	-10943
▁horseback	-10944
alling	-10945
▁Wr	-10946
▁167	-10947
▁grasped	-10948
aze	-10949
▁punct	-10950
▁Illustrated	-10951
▁courte	-10952
▁300	-10953
inals	-10954
▁industri	-10955
▁helping	-10956
▁Alas	-10957
▁Price	-10958
▁peculiarly	-10959
spring	-10960
▁decay	-10961
gings	-10962
▁XVI	-10963
class	-10964
▁lifting	-10965
▁engineer	-10966
ucer	-10967
pence	-10968
▁Philosop	-10969
thel	-10970
▁allowing	-10971
HAT	-10972
▁Ga	-10973
▁fluid	-10974
▁”	-10975
▁ammunition	-10976
▁bulk	-10977
▁assertion	-10978
▁predecess	-10979
▁rash	-10980
▁harbor	-10981
vertis	-10982
▁damage	-10983
▁Bad	-10984
▁ow	-10985
▁62	-10986
organ	-10987
▁sullen	-10988
cheon	-10989
▁receives	-10990
gus	-10991
wart	-10992
▁dollar	-10993
▁Aristot	-10994
▁fare	-10995
▁printing	-10996
▁tune	-10997
▁sports	-10998
▁Fire	-10999
▁HIS	-11000
▁frankly	-11001
▁lodging	-11002
▁Moore	-11003
▁13.	-11004
acent	-11005
▁gasped	-11006
▁owed	-11007
▁Clar	-11008
▁enthusiastic	-11009
▁staying	-11010
OME	-11011
▁pint	-11012
inently	-11013
▁indebted	-11014
▁craw	-11015
▁amend	-11016
▁trifling	-11017
isting	-11018
▁ingenious	-11019
▁pencil	-11020
▁Country	-11021
▁dia	-11022
▁Kenn	-11023
▁tidings	-11024
▁foes	-11025
ota	-11026
▁guided	-11027
▁Ra	-11028
▁cows	-11029
▁tools	-11030
inton	-11031
▁dignified	-11032
▁pillow	-11033
▁Maurice	-11034
▁herd	-11035
▁identical	-11036
▁Ess	-11037
▁sweetness	-11038
▁encouragement	-11039
▁perplex	-11040
▁warfare	-11041
▁glittering	-11042
▁stub	-11043
▁si	-11044
▁(2)	-11045
▁partially	-11046
▁CONT	-11047
▁depended	-11048
▁eagerness	-11049
▁Frenchman	-11050
hill	-11051
▁unb	-11052
▁Dear	-11053
,[1	-11054
bby	-11055
▁volcan	-11056
▁delicacy	-11057
▁Chamber	-11058
▁Agnes	-11059
▁Barbara	-11060
▁anticipated	-11061
▁struggled	-11062
ouncing	-11063
▁astron	-11064
▁BOOK	-11065
ettle	-11066
ocity	-11067
uate	-11068
▁chill	-11069
▁impet	-11070
▁dates	-11071
▁Isaac	-11072
▁governed	-11073
reading	-11074
▁customary	-11075
▁bees	-11076
▁brains	-11077
oult	-11078
▁Els	-11079
rod	-11080
▁curtains	-11081
▁umb	-11082
▁ministry	-11083
▁paths	-11084
▁awhile	-11085
#,	-11086
▁PE	-11087
▁Stud	-11088
odox	-11089
▁succeeding	-11090
▁Star	-11091
▁hydro	-11092
▁washing	-11093
▁vind	-11094
ANS	-11095
▁cliffs	-11096
▁gossip	-11097
full	-11098
▁reverse	-11099
▁hypothes	-11100
▁problems	-11101
▁maj	-11102
OLD	-11103
▁fiercely	-11104
▁kins	-11105
▁viii	-11106
45	-11107
▁fabr	-11108
▁Rue	-11109
▁ft	-11110
▁essence	-11111
general	-11112
▁morrow	-11113
▁obligation	-11114
▁Woman	-11115
▁equivalent	-11116
▁studying	-11117
▁Lab	-11118
▁Bol	-11119
▁deliberately	-11120
▁exult	-11121
gered	-11122
▁perished	-11123
▁circuit	-11124
▁Abbey	-11125
▁complained	-11126
▁animated	-11127
▁ambitious	-11128
▁exal	-11129
▁rebel	-11130
▁baggage	-11131
pection	-11132
▁sections	-11133
▁cake	-11134
▁Herm	-11135
actor	-11136
▁mourning	-11137
-6	-11138
▁haue	-11139
▁Inc	-11140
▁rests	-11141
▁snake	-11142
▁chemical	-11143
ete	-11144
Christ	-11145
▁nowhere	-11146
▁ninety	-11147
▁sprung	-11148
▁ED	-11149
▁chival	-11150
AW	-11151
▁semi	-11152
▁likeness	-11153
▁parl	-11154
▁worldly	-11155
incerity	-11156
▁Sabbath	-11157
kel	-11158
▁epoch	-11159
Mad	-11160
'--	-11161
▁significant	-11162
▁Gerald	-11163
▁principally	-11164
▁vale	-11165
XX	-11166
TLE	-11167
▁magistrate	-11168
▁Duc	-11169
▁Free	-11170
▁Hosp	-11171
gie	-11172
osal	-11173
▁decree	-11174
gle	-11175
▁declaring	-11176
▁Rand	-11177
▁horizont	-11178
Indeed	-11179
▁Moham	-11180
reath	-11181
▁shouts	-11182
Poor	-11183
▁westward	-11184
▁complexion	-11185
▁bounds	-11186
▁Stuart	-11187
▁hoarse	-11188
▁stove	-11189
▁settlers	-11190
ilding	-11191
▁pilgrim	-11192
▁chorus	-11193
▁petty	-11194
▁reaches	-11195
arming	-11196
▁enact	-11197
▁Cf	-11198
▁syll	-11199
▁66	-11200
▁defined	-11201
========	-11202
Every	-11203
▁seasons	-11204
▁negative	-11205
Ge	-11206
▁festival	-11207
berts	-11208
▁pad	-11209
▁tramp	-11210
▁tenderly	-11211
▁eventually	-11212
▁wonderfully	-11213
▁heated	-11214
▁Pad	-11215
▁contemporary	-11216
▁awaited	-11217
Par	-11218
▁congregation	-11219
▁insens	-11220
▁Brah	-11221
ieth	-11222
actions	-11223
▁sworn	-11224
icus	-11225
lan	-11226
ixt	-11227
▁embraced	-11228
▁lou	-11229
▁excellence	-11230
▁holiday	-11231
▁nigh	-11232
umble	-11233
▁bits	-11234
▁Beaut	-11235
-8	-11236
▁illumin	-11237
▁rounded	-11238
▁nom	-11239
▁borders	-11240
▁16,	-11241
▁era	-11242
▁Madam	-11243
ocation	-11244
▁inhabited	-11245
.(	-11246
▁Cow	-11247
▁agitated	-11248
▁labours	-11249
▁ruled	-11250
▁bliss	-11251
▁Catholics	-11252
urned	-11253
▁Cass	-11254
hon	-11255
▁venerable	-11256
▁spy	-11257
osis	-11258
▁supposing	-11259
▁Clara	-11260
▁flank	-11261
▁Science	-11262
79	-11263
fire	-11264
▁examining	-11265
chair	-11266
elson	-11267
▁glac	-11268
ometer	-11269
▁consulted	-11270
▁rejoice	-11271
Com	-11272
lasting	-11273
▁pomp	-11274
▁exhibit	-11275
▁XL	-11276
▁angrily	-11277
▁occasioned	-11278
▁disguise	-11279
▁hammer	-11280
▁skies	-11281
▁excite	-11282
▁crop	-11283
▁scent	-11284
▁Legisl	-11285
▁na	-11286
▁casting	-11287
▁lamps	-11288
▁plane	-11289
▁Power	-11290
ethe	-11291
mates	-11292
▁omitted	-11293
▁thankful	-11294
▁deepest	-11295
▁loyalty	-11296
▁remorse	-11297
▁tempest	-11298
▁Social	-11299
▁Saxon	-11300
▁multipl	-11301
▁Upper	-11302
vial	-11303
▁considerations	-11304
▁Tow	-11305
ursday	-11306
isen	-11307
uminous	-11308
▁grandeur	-11309
▁Civil	-11310
green	-11311
▁truths	-11312
▁substantial	-11313
▁alco	-11314
▁entry	-11315
és	-11316
▁Morgan	-11317
▁ton	-11318
▁faithfully	-11319
▁Excell	-11320
▁echoed	-11321
▁approval	-11322
▁virtuous	-11323
▁WILLIAM	-11324
▁solely	-11325
▁Soc	-11326
▁bowl	-11327
▁expressing	-11328
▁basin	-11329
▁156	-11330
▁tongues	-11331
▁guarant	-11332
▁Treat	-11333
▁rubbed	-11334
ANC	-11335
▁sunny	-11336
▁particip	-11337
▁hired	-11338
▁refres	-11339
▁theories	-11340
▁mathemat	-11341
▁teleph	-11342
▁Poet	-11343
yers	-11344
▁plum	-11345
▁rab	-11346
▁terribly	-11347
▁dreaded	-11348
▁conclusions	-11349
▁wonders	-11350
▁cars	-11351
▁pony	-11352
urable	-11353
▁FOOTNOT	-11354
22	-11355
▁lime	-11356
▁decorated	-11357
▁sheer	-11358
_!	-11359
▁prett	-11360
▁someone	-11361
▁prolonged	-11362
▁indispens	-11363
▁alluded	-11364
▁Pel	-11365
▁20,	-11366
▁allied	-11367
▁tack	-11368
▁chant	-11369
▁elbow	-11370
▁upset	-11371
erem	-11372
icating	-11373
▁ff	-11374
▁theme	-11375
▁Pont	-11376
▁riv	-11377
▁width	-11378
▁undertaken	-11379
▁(1)	-11380
orning	-11381
▁tread	-11382
▁reveal	-11383
▁manifested	-11384
▁besie	-11385
▁Edith	-11386
▁behaviour	-11387
▁descendants	-11388
▁sou	-11389
▁Ur	-11390
because	-11391
▁arriving	-11392
▁causing	-11393
▁gover	-11394
Nay	-11395
▁diamonds	-11396
▁Monte	-11397
▁staircase	-11398
MENT	-11399
▁exile	-11400
▁manly	-11401
▁doctors	-11402
▁suspicions	-11403
▁tossed	-11404
▁Hans	-11405
▁constitute	-11406
▁sends	-11407
uesday	-11408
▁quad	-11409
▁appreciation	-11410
▁Full	-11411
▁surf	-11412
▁believes	-11413
▁gy	-11414
nie	-11415
▁PO	-11416
▁whistle	-11417
▁attraction	-11418
▁Phys	-11419
▁imprisonment	-11420
▁unhe	-11421
▁UPSILON	-11422
▁soup	-11423
▁impatiently	-11424
▁consumed	-11425
▁taxes	-11426
utter	-11427
▁hurriedly	-11428
▁tiss	-11429
enz	-11430
ippers	-11431
▁opens	-11432
Ye	-11433
▁Others	-11434
orship	-11435
igan	-11436
▁attempting	-11437
▁warmly	-11438
▁Wol	-11439
anna	-11440
▁imagin	-11441
▁carriages	-11442
▁esp	-11443
▁robe	-11444
▁Robin	-11445
▁promising	-11446
amy	-11447
▁15.	-11448
▁Davis	-11449
▁plunder	-11450
▁trades	-11451
▁Liter	-11452
▁corrid	-11453
▁communicate	-11454
▁involunt	-11455
▁Yor	-11456
inkling	-11457
town	-11458
▁limb	-11459
▁14.	-11460
▁honorable	-11461
▁Think	-11462
▁wildly	-11463
▁deserves	-11464
▁include	-11465
giving	-11466
▁Ted	-11467
▁Sultan	-11468
▁Mu	-11469
▁orchard	-11470
▁Douglas	-11471
▁Ever	-11472
Me	-11473
▁AB	-11474
▁Horse	-11475
▁Ot	-11476
▁joyous	-11477
▁clad	-11478
▁155	-11479
ivities	-11480
▁whites	-11481
▁attendant	-11482
lar	-11483
▁blade	-11484
▁Campbell	-11485
▁Fortun	-11486
▁Cromwell	-11487
▁Indies	-11488
▁burial	-11489
▁refresh	-11490
▁discom	-11491
cht	-11492
▁oppose	-11493
▁circulation	-11494
▁diamond	-11495
Was	-11496
▁refined	-11497
▁ripe	-11498
every	-11499
▁inheritance	-11500
▁hanged	-11501
▁deceive	-11502
▁faintly	-11503
rude	-11504
sk	-11505
▁applause	-11506
▁appealed	-11507
▁anyhow	-11508
olo	-11509
▁patent	-11510
:/	-11511
▁Morris	-11512
▁monsieur	-11513
▁strip	-11514
▁ultimate	-11515
▁prostr	-11516
▁bundle	-11517
asmuch	-11518
▁Allen	-11519
verted	-11520
History	-11521
▁resigned	-11522
▁aer	-11523
▁harder	-11524
▁weighed	-11525
▁rapidity	-11526
▁fraud	-11527
▁concert	-11528
▁indignant	-11529
mus	-11530
▁gale	-11531
▁sympathetic	-11532
castle	-11533
▁glor	-11534
76	-11535
▁Clay	-11536
▁wretch	-11537
▁Austrian	-11538
▁trous	-11539
say	-11540
▁Kentucky	-11541
▁moves	-11542
esses	-11543
east	-11544
▁piety	-11545
bird	-11546
▁captive	-11547
▁Satan	-11548
▁pepper	-11549
▁seventh	-11550
▁accent	-11551
▁unqu	-11552
▁cigaret	-11553
fles	-11554
▁constituted	-11555
▁attendance	-11556
bation	-11557
▁fiction	-11558
▁thickness	-11559
broken	-11560
▁withdrawn	-11561
▁prelim	-11562
anity	-11563
atum	-11564
VI	-11565
▁cum	-11566
▁FL	-11567
ths	-11568
▁comrade	-11569
▁mouths	-11570
alogue	-11571
oled	-11572
▁dash	-11573
▁Glad	-11574
LEY	-11575
▁gird	-11576
ATIONS	-11577
▁peoples	-11578
▁stamped	-11579
aned	-11580
▁roast	-11581
▁ix	-11582
▁infinitely	-11583
icket	-11584
▁vegetables	-11585
oons	-11586
▁mos	-11587
▁lane	-11588
▁extension	-11589
dam	-11590
▁button	-11591
▁Ce	-11592
▁swallowed	-11593
▁Lad	-11594
▁penalty	-11595
Man	-11596
▁constitutional	-11597
inois	-11598
▁perception	-11599
▁discoveries	-11600
fly	-11601
▁descending	-11602
ooner	-11603
▁eloquent	-11604
▁coron	-11605
▁brandy	-11606
▁brows	-11607
▁dresses	-11608
▁spake	-11609
▁breaks	-11610
▁knelt	-11611
▁locks	-11612
▁philosophers	-11613
▁Mayor	-11614
▁suppressed	-11615
000,000	-11616
▁Occ	-11617
▁flowed	-11618
▁discretion	-11619
▁Above	-11620
▁Get	-11621
▁COMP	-11622
▁Roche	-11623
▁Story	-11624
▁Friend	-11625
▁spectators	-11626
▁excessive	-11627
▁Soph	-11628
▁Moor	-11629
rah	-11630
ello	-11631
▁energet	-11632
▁cabinet	-11633
▁disreg	-11634
▁Clark	-11635
▁strikes	-11636
▁Method	-11637
▁winning	-11638
▁covers	-11639
▁renew	-11640
isdiction	-11641
rete	-11642
▁Dom	-11643
haired	-11644
44	-11645
oland	-11646
grown	-11647
▁guine	-11648
oust	-11649
▁sulphur	-11650
REN	-11651
▁mirth	-11652
▁sep	-11653
▁Make	-11654
▁69	-11655
▁Ta	-11656
▁lighter	-11657
ainty	-11658
▁Matthew	-11659
▁ultimately	-11660
▁ceiling	-11661
▁gn	-11662
▁orth	-11663
▁tricks	-11664
://	-11665
▁floated	-11666
▁meek	-11667
▁Charlie	-11668
▁hats	-11669
▁Nov	-11670
▁Venet	-11671
▁pipes	-11672
▁shades	-11673
▁exceeding	-11674
▁explo	-11675
anse	-11676
▁convince	-11677
▁Ord	-11678
▁inconsist	-11679
▁Review	-11680
▁costly	-11681
▁clasp	-11682
hot	-11683
▁accuracy	-11684
IFE	-11685
▁sacrifices	-11686
▁hears	-11687
▁Benj	-11688
uzz	-11689
▁manhood	-11690
▁professed	-11691
▁fret	-11692
▁sergeant	-11693
▁pas	-11694
▁pouring	-11695
▁Mohammed	-11696
▁hedge	-11697
▁wrest	-11698
▁Happ	-11699
▁Merc	-11700
▁mysteries	-11701
▁startling	-11702
▁anyway	-11703
▁overfl	-11704
▁Letter	-11705
▁Mountains	-11706
▁cant	-11707
▁61	-11708
▁Dublin	-11709
▁ringing	-11710
▁remarkably	-11711
▁shudd	-11712
▁Ald	-11713
▁sund	-11714
▁youngest	-11715
run	-11716
Old	-11717
▁analysis	-11718
▁Bath	-11719
lig	-11720
▁dismay	-11721
atches	-11722
▁whereby	-11723
▁bewildered	-11724
ulch	-11725
▁commend	-11726
▁primary	-11727
▁breach	-11728
ombard	-11729
▁legislation	-11730
▁defiance	-11731
▁phenomenon	-11732
▁severity	-11733
ishers	-11734
▁conve	-11735
Gl	-11736
▁glancing	-11737
▁sweeping	-11738
▁prosperous	-11739
▁lined	-11740
▁dirt	-11741
▁debts	-11742
▁Howard	-11743
▁angles	-11744
▁163	-11745
▁halt	-11746
▁intrig	-11747
▁scept	-11748
sq	-11749
kers	-11750
▁cos	-11751
▁continual	-11752
▁dost	-11753
▁parson	-11754
▁identity	-11755
▁unanim	-11756
▁obviously	-11757
▁recru	-11758
▁cavern	-11759
▁ME	-11760
▁adjust	-11761
encing	-11762
▁Englishmen	-11763
▁Mission	-11764
inous	-11765
▁enlarged	-11766
▁Cad	-11767
▁reaction	-11768
▁shorter	-11769
imo	-11770
ihil	-11771
▁monastery	-11772
rating	-11773
▁Dave	-11774
—_	-11775
▁63	-11776
▁sparkling	-11777
▁trials	-11778
▁despised	-11779
▁latitude	-11780
OCK	-11781
▁blend	-11782
▁repaired	-11783
zer	-11784
▁guid	-11785
▁mule	-11786
ulsive	-11787
:--"	-11788
▁Russell	-11789
ISP	-11790
ifice	-11791
▁planet	-11792
▁terrified	-11793
somet	-11794
▁welcomed	-11795
DA	-11796
▁martyr	-11797
▁oars	-11798
▁alleged	-11799
▁tightly	-11800
▁Mountain	-11801
▁unite	-11802
▁Wolf	-11803
▁faster	-11804
▁dreaming	-11805
▁rosy	-11806
ERN	-11807
▁wits	-11808
uis	-11809
▁17,	-11810
dinand	-11811
▁misunder	-11812
▁supernatural	-11813
▁deceased	-11814
▁sacrificed	-11815
▁beggar	-11816
▁cautiously	-11817
▁dined	-11818
▁Himself	-11819
▁despot	-11820
▁gramm	-11821
lings	-11822
▁endured	-11823
▁massive	-11824
▁slumber	-11825
▁Year	-11826
▁physi	-11827
▁prudence	-11828
▁juice	-11829
▁highway	-11830
▁pushing	-11831
▁inspection	-11832
▁influenced	-11833
▁Golden	-11834
liest	-11835
▁trenches	-11836
▁Devil	-11837
▁Works	-11838
▁financial	-11839
▁keys	-11840
▁PAR	-11841
▁corruption	-11842
▁18,	-11843
▁Vic	-11844
ctic	-11845
▁Gregory	-11846
▁hypocr	-11847
000.	-11848
▁172	-11849
▁eighteenth	-11850
▁armour	-11851
▁chal	-11852
▁Bacon	-11853
craft	-11854
▁Bless	-11855
▁plent	-11856
▁Ren	-11857
▁cush	-11858
▁greeting	-11859
▁kindred	-11860
BERT	-11861
▁debate	-11862
▁ante	-11863
▁meadow	-11864
▁generals	-11865
▁headquarters	-11866
▁sums	-11867
▁25,	-11868
cap	-11869
requ	-11870
▁emphat	-11871
▁Batt	-11872
▁wider	-11873
▁objections	-11874
!’	-11875
oug	-11876
Only	-11877
▁Blake	-11878
▁musket	-11879
aude	-11880
▁monstr	-11881
▁refusal	-11882
▁richly	-11883
▁chast	-11884
▁outrage	-11885
▁temperament	-11886
▁fres	-11887
▁Further	-11888
▁foremost	-11889
vings	-11890
▁Arnold	-11891
▁Av	-11892
▁happier	-11893
▁interven	-11894
▁incredible	-11895
tin	-11896
▁Cub	-11897
▁bunch	-11898
maker	-11899
▁uncomfortable	-11900
▁declares	-11901
▁legitimate	-11902
▁searched	-11903
▁fools	-11904
▁:	-11905
▁tyranny	-11906
▁Liver	-11907
▁TW	-11908
Sec	-11909
ENCE	-11910
▁shower	-11911
▁Sab	-11912
▁feminine	-11913
▁intox	-11914
▁murderer	-11915
▁indispensable	-11916
cott	-11917
▁Federal	-11918
▁Small	-11919
▁systems	-11920
ENE	-11921
7)	-11922
thorn	-11923
▁sandy	-11924
▁dialect	-11925
▁substit	-11926
mons	-11927
▁patch	-11928
▁earl	-11929
▁barrel	-11930
▁sixteenth	-11931
isle	-11932
▁diet	-11933
▁Columbus	-11934
▁blaze	-11935
▁resemble	-11936
▁attendants	-11937
▁insignific	-11938
Life	-11939
▁reckoned	-11940
nesday	-11941
agu	-11942
▁bite	-11943
▁morals	-11944
cca	-11945
▁candles	-11946
▁treachery	-11947
▁sealed	-11948
▁quote	-11949
▁exalted	-11950
una	-11951
▁boundary	-11952
cession	-11953
▁PI	-11954
▁Letters	-11955
▁tastes	-11956
▁chambers	-11957
▁detailed	-11958
▁compound	-11959
▁Corps	-11960
▁vacant	-11961
▁expensive	-11962
▁Aust	-11963
▁git	-11964
▁Jeh	-11965
idity	-11966
▁Canadian	-11967
▁funds	-11968
:00	-11969
▁assent	-11970
▁esteemed	-11971
▁Made	-11972
▁Ref	-11973
▁unseen	-11974
▁schem	-11975
▁Tha	-11976
▁Chester	-11977
▁typical	-11978
icide	-11979
▁blocks	-11980
▁Certainly	-11981
▁assistant	-11982
▁Rest	-11983
▁estimated	-11984
▁pamph	-11985
▁sentences	-11986
▁Yan	-11987
▁162	-11988
▁Sup	-11989
▁philosophical	-11990
▁exhibition	-11991
▁disposal	-11992
▁diminished	-11993
▁κ	-11994
▁recognise	-11995
ère	-11996
▁plough	-11997
▁Work	-11998
arf	-11999
▁exercises	-12000
▁expand	-12001
eded	-12002
▁ruler	-12003
velope	-12004
▁Dry	-12005
▁mic	-12006
▁grove	-12007
IAL	-12008
▁alongside	-12009
▁hurrying	-12010
▁Chron	-12011
▁devote	-12012
▁clearing	-12013
ecd	-12014
▁statues	-12015
▁shat	-12016
▁hue	-12017
▁Winter	-12018
▁ej	-12019
▁blessings	-12020
▁'_	-12021
▁Tot	-12022
fit	-12023
▁hoof	-12024
▁persecution	-12025
▁isolated	-12026
▁QU	-12027
----+	-12028
▁pleasantly	-12029
▁Dean	-12030
▁offensive	-12031
▁inserted	-12032
▁Eight	-12033
▁securing	-12034
▁vigil	-12035
▁Creat	-12036
▁arising	-12037
▁MA	-12038
▁sincerity	-12039
tte	-12040
▁poo	-12041
bod	-12042
upt	-12043
▁surrend	-12044
matic	-12045
▁Nort	-12046
▁sect	-12047
worthy	-12048
▁penit	-12049
▁Vinc	-12050
▁endowed	-12051
▁sam	-12052
▁eagle	-12053
▁submission	-12054
▁allusion	-12055
▁viv	-12056
▁ray	-12057
▁controversy	-12058
inged	-12059
▁clut	-12060
▁Shell	-12061
▁Roberts	-12062
▁jurisdiction	-12063
▁Produced	-12064
▁detected	-12065
▁explore	-12066
▁Convention	-12067
▁blush	-12068
▁traitor	-12069
▁monuments	-12070
▁Russians	-12071
▁generosity	-12072
Would	-12073
▁FINAL	-12074
▁baptism	-12075
▁terrace	-12076
48	-12077
KE	-12078
riel	-12079
▁conference	-12080
him	-12081
▁allowance	-12082
▁oppressed	-12083
▁miracles	-12084
▁patients	-12085
▁Bir	-12086
▁CAR	-12087
▁amazed	-12088
▁recl	-12089
itzer	-12090
emen	-12091
▁ay	-12092
▁lav	-12093
aware	-12094
▁everlasting	-12095
▁drown	-12096
▁cooked	-12097
▁tavern	-12098
▁organic	-12099
▁Kingdom	-12100
ja	-12101
▁propriety	-12102
▁selling	-12103
▁Loc	-12104
▁anecd	-12105
6)	-12106
▁oz	-12107
▁Gene	-12108
▁resulted	-12109
▁intensity	-12110
oda	-12111
azar	-12112
venant	-12113
▁bidding	-12114
▁gi	-12115
▁lungs	-12116
peak	-12117
▁Garden	-12118
nels	-12119
▁perfor	-12120
▁split	-12121
▁Clement	-12122
arned	-12123
▁shew	-12124
▁Children	-12125
▁reckless	-12126
▁profits	-12127
▁Nile	-12128
▁proprietor	-12129
▁cups	-12130
▁associations	-12131
▁Bright	-12132
▁Illinois	-12133
▁factory	-12134
2}	-12135
sor	-12136
▁pump	-12137
▁dissolved	-12138
▁[10	-12139
▁gloves	-12140
▁breed	-12141
hole	-12142
iscop	-12143
▁67	-12144
▁repet	-12145
▁pest	-12146
▁Welsh	-12147
▁cursed	-12148
▁squire	-12149
▁Forest	-12150
▁lemon	-12151
▁slaughter	-12152
Char	-12153
▁Graham	-12154
▁integr	-12155
▁——	-12156
suing	-12157
adle	-12158
▁splendour	-12159
▁resolve	-12160
ulously	-12161
oirs	-12162
▁player	-12163
Give	-12164
▁Ul	-12165
ONG	-12166
▁sag	-12167
itical	-12168
▁eternity	-12169
▁Bonaparte	-12170
chal	-12171
▁dominion	-12172
▁dusk	-12173
bag	-12174
▁realised	-12175
▁hasn	-12176
▁decisive	-12177
▁Josh	-12178
tion	-12179
▁Antonio	-12180
Pe	-12181
▁preservation	-12182
▁prevail	-12183
▁Harold	-12184
▁Jun	-12185
▁climbing	-12186
▁Twenty	-12187
hab	-12188
▁reflections	-12189
▁simult	-12190
▁relates	-12191
azed	-12192
▁preference	-12193
▁sorrows	-12194
▁stretching	-12195
▁university	-12196
▁Ferdinand	-12197
▁onward	-12198
coming	-12199
odd	-12200
▁stu	-12201
▁poetic	-12202
ROW	-12203
▁assign	-12204
▁arches	-12205
▁proclaim	-12206
give	-12207
▁kin	-12208
▁alien	-12209
wealth	-12210
500	-12211
xton	-12212
▁exclamation	-12213
▁Poly	-12214
▁vile	-12215
▁revolt	-12216
▁Lor	-12217
▁workers	-12218
▁apples	-12219
▁civ	-12220
▁summons	-12221
▁exclusive	-12222
▁unreason	-12223
▁π	-12224
▁downward	-12225
▁tremble	-12226
▁locality	-12227
pa	-12228
▁joys	-12229
▁Philipp	-12230
▁dans	-12231
insula	-12232
▁thyself	-12233
▁Portugal	-12234
▁titles	-12235
entric	-12236
▁prow	-12237
▁Coo	-12238
icker	-12239
Say	-12240
Phil	-12241
▁120	-12242
▁Almighty	-12243
▁Senator	-12244
▁handful	-12245
sar	-12246
riers	-12247
ppers	-12248
▁sheriff	-12249
▁reass	-12250
upiter	-12251
lee	-12252
▁Id	-12253
▁foreigners	-12254
▁Ghost	-12255
▁objected	-12256
▁Emily	-12257
▁caps	-12258
itably	-12259
▁bestow	-12260
▁16.	-12261
▁Cic	-12262
▁arbitr	-12263
▁22,	-12264
enne	-12265
voc	-12266
nant	-12267
▁persisted	-12268
▁ragged	-12269
▁Oriental	-12270
▁VARIA	-12271
vens	-12272
rett	-12273
▁agricultural	-12274
▁("	-12275
▁horsemen	-12276
ttp	-12277
▁despatched	-12278
▁envelop	-12279
▁squadron	-12280
▁Die	-12281
▁prophecy	-12282
▁praised	-12283
▁fidelity	-12284
▁glances	-12285
▁pierced	-12286
▁portraits	-12287
▁recovery	-12288
▁Norm	-12289
▁monstrous	-12290
▁fath	-12291
▁crops	-12292
▁poles	-12293
▁tooth	-12294
▁ecst	-12295
▁robes	-12296
▁Aristotle	-12297
▁Jimmy	-12298
▁swing	-12299
first	-12300
▁restoration	-12301
▁revolver	-12302
cloth	-12303
▁engines	-12304
▁headed	-12305
▁78	-12306
▁cellar	-12307
▁Palmer	-12308
▁shrill	-12309
▁victorious	-12310
▁casual	-12311
68	-12312
▁sadness	-12313
▁reduce	-12314
ando	-12315
▁tracks	-12316
▁Broad	-12317
▁notable	-12318
▁resentment	-12319
▁bred	-12320
▁finer	-12321
▁Thee	-12322
▁beauties	-12323
▁Bou	-12324
▁Gothic	-12325
▁interference	-12326
▁imposing	-12327
▁extends	-12328
▁strengthened	-12329
elfth	-12330
▁ted	-12331
▁spur	-12332
▁154	-12333
▁orphan	-12334
▁tragic	-12335
▁insect	-12336
▁ou	-12337
▁finely	-12338
▁profitable	-12339
athed	-12340
▁append	-12341
▁Det	-12342
ANCE	-12343
▁exh	-12344
▁stationed	-12345
▁illum	-12346
▁19,	-12347
▁schemes	-12348
▁Phill	-12349
▁curve	-12350
▁wholesome	-12351
▁substitute	-12352
▁pavement	-12353
▁Tu	-12354
▁Thursday	-12355
▁utterance	-12356
aphys	-12357
iterranean	-12358
31	-12359
▁forgetting	-12360
lam	-12361
▁aught	-12362
▁rugged	-12363
▁veter	-12364
▁dial	-12365
▁annoyed	-12366
hind	-12367
itus	-12368
▁blanket	-12369
,"--	-12370
▁lawful	-12371
▁detective	-12372
archy	-12373
roc	-12374
▁complicated	-12375
▁intern	-12376
Americ	-12377
▁inflicted	-12378
▁neutral	-12379
▁concerns	-12380
▁possessing	-12381
▁economic	-12382
apes	-12383
▁Kitty	-12384
▁shepherd	-12385
▁Georgia	-12386
▁falsehood	-12387
▁Fro	-12388
▁aspir	-12389
▁equality	-12390
▁LAM	-12391
▁Beth	-12392
▁proverb	-12393
▁females	-12394
▁labors	-12395
▁Leonard	-12396
▁draws	-12397
▁requisite	-12398
▁Nelson	-12399
▁Guard	-12400
▁observer	-12401
▁MON	-12402
▁hunters	-12403
▁ale	-12404
▁tribun	-12405
▁libert	-12406
▁reads	-12407
▁coffin	-12408
▁accounted	-12409
▁brutal	-12410
▁Times	-12411
UG	-12412
dal	-12413
▁Sally	-12414
ector	-12415
▁failing	-12416
▁undertook	-12417
▁confounded	-12418
▁Rap	-12419
▁hen	-12420
▁Publ	-12421
▁detached	-12422
advant	-12423
▁paste	-12424
▁batteries	-12425
▁serves	-12426
▁chlor	-12427
▁Edmund	-12428
▁yo	-12429
▁describing	-12430
must	-12431
▁Maid	-12432
▁swinging	-12433
▁porter	-12434
▁improvements	-12435
▁pope	-12436
▁Bent	-12437
▁Joan	-12438
▁pledge	-12439
▁adult	-12440
▁achieved	-12441
▁contracted	-12442
▁trains	-12443
55	-12444
▁Sin	-12445
▁laden	-12446
▁repeating	-12447
▁intr	-12448
▁stoop	-12449
▁trousers	-12450
Ed	-12451
nothing	-12452
London	-12453
▁suffice	-12454
▁memorable	-12455
▁ports	-12456
▁fragment	-12457
▁ost	-12458
▁peep	-12459
▁Horn	-12460
▁Owen	-12461
▁tenth	-12462
▁rendering	-12463
▁whereupon	-12464
▁meals	-12465
▁aided	-12466
▁Ages	-12467
▁lance	-12468
xter	-12469
▁Harr	-12470
▁Mason	-12471
';	-12472
▁compr	-12473
▁arises	-12474
▁Cathedral	-12475
▁Truth	-12476
Sp	-12477
igo	-12478
▁PRIN	-12479
▁competition	-12480
▁pleaded	-12481
atching	-12482
▁screen	-12483
▁Intern	-12484
▁Az	-12485
▁cruc	-12486
▁salary	-12487
nine	-12488
▁imprisoned	-12489
▁21,	-12490
▁foll	-12491
▁[18	-12492
▁Bohem	-12493
▁reigned	-12494
▁token	-12495
▁enumer	-12496
▁parlor	-12497
▁bravely	-12498
▁critics	-12499
▁recip	-12500
▁presenting	-12501
▁supporting	-12502
▁crazy	-12503
▁quitted	-12504
▁thoughtfully	-12505
▁husbands	-12506
▁Assy	-12507
▁relics	-12508
▁whar	-12509
▁Orange	-12510
▁roughly	-12511
twas	-12512
▁irresistible	-12513
▁Nancy	-12514
▁knot	-12515
▁unconsciously	-12516
▁dimensions	-12517
▁Louise	-12518
▁prophets	-12519
▁foundations	-12520
▁Tuesday	-12521
▁paces	-12522
▁72	-12523
▁hypothesis	-12524
▁haughty	-12525
ya	-12526
▁serene	-12527
augh	-12528
ench	-12529
▁fist	-12530
▁Probably	-12531
▁industrial	-12532
▁alert	-12533
▁riot	-12534
▁monop	-12535
▁honesty	-12536
▁rider	-12537
▁emerged	-12538
▁mit	-12539
▁Shar	-12540
▁HAR	-12541
unciation	-12542
▁28,	-12543
▁radiant	-12544
▁haunted	-12545
▁Regiment	-12546
▁settlements	-12547
▁171	-12548
itic	-12549
▁virgin	-12550
▁challenge	-12551
change	-12552
▁skilful	-12553
▁harmless	-12554
▁24,	-12555
▁shoe	-12556
ITION	-12557
▁panic	-12558
▁astonishing	-12559
▁axe	-12560
▁Vers	-12561
▁XVIII	-12562
▁FOOTNOTES	-12563
.:	-12564
▁mules	-12565
▁Plate	-12566
▁northward	-12567
iantly	-12568
udding	-12569
▁disdain	-12570
encer	-12571
OSE	-12572
Cha	-12573
▁lamb	-12574
▁indirect	-12575
▁Log	-12576
▁swallow	-12577
thy	-12578
▁secondary	-12579
▁motions	-12580
TY	-12581
▁Percy	-12582
Mon	-12583
penter	-12584
▁Scots	-12585
▁Cousin	-12586
-9	-12587
lic	-12588
▁patiently	-12589
▁dainty	-12590
▁lectures	-12591
AMES	-12592
▁comparative	-12593
▁Mediterranean	-12594
▁flows	-12595
estone	-12596
ivable	-12597
▁sarc	-12598
▁cad	-12599
▁crowds	-12600
▁machines	-12601
▁Texas	-12602
▁flush	-12603
▁prairie	-12604
▁Cher	-12605
Obs	-12606
▁overhead	-12607
▁wist	-12608
bster	-12609
▁adequate	-12610
▁bottles	-12611
▁Press	-12612
▁vigour	-12613
▁rejoiced	-12614
pole	-12615
▁Braz	-12616
▁17.	-12617
▁conferred	-12618
▁pillars	-12619
▁universally	-12620
▁authent	-12621
▁conserv	-12622
▁cherished	-12623
▁insuff	-12624
▁piled	-12625
▁dedicated	-12626
▁righteousness	-12627
▁suggestions	-12628
▁confeder	-12629
▁wiser	-12630
bred	-12631
.[1	-12632
▁ambassador	-12633
▁157	-12634
▁Rub	-12635
writing	-12636
▁folds	-12637
▁152	-12638
▁173	-12639
ni	-12640
▁Staff	-12641
oux	-12642
▁pilot	-12643
▁oxen	-12644
▁forfe	-12645
------+	-12646
cules	-12647
▁Know	-12648
▁pige	-12649
▁Molly	-12650
▁offspring	-12651
▁secl	-12652
▁Nell	-12653
▁Glen	-12654
▁announcement	-12655
▁20.	-12656
▁losses	-12657
mill	-12658
▁stations	-12659
▁161	-12660
▁granite	-12661
ouring	-12662
▁definition	-12663
▁coldly	-12664
▁mantle	-12665
eller	-12666
▁missionaries	-12667
▁removing	-12668
▁Near	-12669
▁modified	-12670
▁thumb	-12671
▁visions	-12672
▁KING	-12673
▁chapters	-12674
▁exertions	-12675
▁74	-12676
▁posted	-12677
▁earned	-12678
▁crust	-12679
▁comfortably	-12680
avia	-12681
▁loos	-12682
▁pathetic	-12683
▁carelessly	-12684
cas	-12685
▁plus	-12686
▁Milan	-12687
▁plead	-12688
▁logical	-12689
▁Nan	-12690
nor	-12691
uke	-12692
rigg	-12693
▁gradual	-12694
▁Evan	-12695
▁invite	-12696
▁forthwith	-12697
chus	-12698
▁Dolly	-12699
▁spont	-12700
alle	-12701
▁ounces	-12702
iser	-12703
undered	-12704
▁blankets	-12705
▁Martha	-12706
▁aux	-12707
▁Benjamin	-12708
▁banquet	-12709
▁Remember	-12710
▁appreciated	-12711
▁players	-12712
▁impert	-12713
▁buffalo	-12714
▁Herod	-12715
▁wisely	-12716
etta	-12717
itches	-12718
▁Chancellor	-12719
▁competent	-12720
▁delayed	-12721
▁Ern	-12722
▁pang	-12723
▁Anglo	-12724
arks	-12725
▁strove	-12726
▁cate	-12727
▁Scriptures	-12728
▁subd	-12729
assed	-12730
▁lingered	-12731
▁mask	-12732
▁unfold	-12733
▁theology	-12734
▁tyrant	-12735
▁Tart	-12736
fortunes	-12737
▁cane	-12738
estial	-12739
▁fearing	-12740
▁1/2	-12741
ropolis	-12742
▁classical	-12743
INS	-12744
▁impass	-12745
▁SER	-12746
▁await	-12747
▁epit	-12748
▁nails	-12749
▁strained	-12750
▁Tommy	-12751
▁Cornwall	-12752
shot	-12753
epend	-12754
▁schooner	-12755
▁Columbia	-12756
▁Stock	-12757
▁Jefferson	-12758
▁chanced	-12759
▁repeatedly	-12760
ILD	-12761
IND	-12762
▁gorgeous	-12763
▁disadvant	-12764
▁devout	-12765
▁hazard	-12766
▁gaining	-12767
▁Venus	-12768
▁doom	-12769
▁Proof	-12770
▁Cloth	-12771
▁sway	-12772
▁surrendered	-12773
▁avenue	-12774
▁advertis	-12775
▁rural	-12776
itories	-12777
▁convenience	-12778
▁homage	-12779
▁prejudices	-12780
▁disturbance	-12781
▁swimming	-12782
5)	-12783
thought	-12784
▁befall	-12785
▁proudly	-12786
▁degener	-12787
▁efficient	-12788
▁Cut	-12789
▁Sweet	-12790
owered	-12791
▁device	-12792
these	-12793
▁GEOR	-12794
▁inquis	-12795
▁founder	-12796
▁affords	-12797
▁cited	-12798
pres	-12799
▁beam	-12800
▁honoured	-12801
▁refers	-12802
tre	-12803
▁anci	-12804
▁meadows	-12805
▁lodged	-12806
ellig	-12807
▁Jupiter	-12808
▁elapsed	-12809
child	-12810
▁jewel	-12811
▁defense	-12812
▁tab	-12813
."]	-12814
▁ful	-12815
▁Liverpool	-12816
▁Bat	-12817
▁popularity	-12818
▁cust	-12819
▁garment	-12820
onial	-12821
ENS	-12822
▁yielding	-12823
▁singularly	-12824
▁Augustus	-12825
▁phrases	-12826
works	-12827
▁Bruce	-12828
chi	-12829
▁consistent	-12830
isse	-12831
being	-12832
▁scram	-12833
IRST	-12834
ribes	-12835
▁Religion	-12836
▁ware	-12837
▁beams	-12838
▁conspiracy	-12839
▁acquaintances	-12840
▁sincerely	-12841
▁wagons	-12842
▁Girl	-12843
▁cage	-12844
onge	-12845
▁Cort	-12846
▁Caval	-12847
▁Whose	-12848
▁touches	-12849
▁RHO	-12850
▁effectually	-12851
▁hunted	-12852
▁inherited	-12853
▁stillness	-12854
opher	-12855
velled	-12856
▁harness	-12857
ili	-12858
▁southward	-12859
bri	-12860
▁18.	-12861
▁suggests	-12862
▁sensations	-12863
▁Marion	-12864
▁regulations	-12865
▁vexed	-12866
▁proclamation	-12867
▁gal	-12868
▁Jos	-12869
▁choir	-12870
▁meets	-12871
▁evenings	-12872
▁exertion	-12873
Dr	-12874
▁Song	-12875
▁anti	-12876
▁Madrid	-12877
▁Stat	-12878
▁Rhine	-12879
▁Ethel	-12880
▁Il	-12881
▁praying	-12882
ww	-12883
Ant	-12884
▁Quebec	-12885
▁Foreign	-12886
▁agency	-12887
pre	-12888
▁Turkey	-12889
▁storms	-12890
▁shapes	-12891
▁olive	-12892
▁springing	-12893
▁seventeenth	-12894
▁logs	-12895
ANG	-12896
▁honours	-12897
▁30,	-12898
▁banished	-12899
▁descriptions	-12900
▁fantastic	-12901
gency	-12902
▁Suppose	-12903
▁Mind	-12904
▁lass	-12905
enser	-12906
books	-12907
hames	-12908
▁Acts	-12909
▁extravagant	-12910
▁historic	-12911
▁lasting	-12912
▁flashing	-12913
▁thieves	-12914
empl	-12915
▁malice	-12916
▁Hospital	-12917
Ap	-12918
▁stare	-12919
▁guidance	-12920
sues	-12921
yrus	-12922
▁exposure	-12923
▁envelope	-12924
▁149	-12925
grave	-12926
ilies	-12927
▁revived	-12928
▁Aven	-12929
▁asse	-12930
74	-12931
▁sadd	-12932
▁yacht	-12933
▁precept	-12934
▁cakes	-12935
▁Darwin	-12936
▁stealing	-12937
▁league	-12938
▁herald	-12939
▁ENG	-12940
ONDON	-12941
YN	-12942
▁ensued	-12943
cation	-12944
▁mentions	-12945
▁85	-12946
pendicular	-12947
▁prospects	-12948
▁deliberate	-12949
▁opponents	-12950
▁usur	-12951
▁invested	-12952
rings	-12953
▁apprent	-12954
anger	-12955
▁Geoff	-12956
▁fails	-12957
▁Excellency	-12958
▁memb	-12959
▁Ext	-12960
path	-12961
plete	-12962
▁blazing	-12963
▁duration	-12964
▁Jersey	-12965
▁tel	-12966
▁Persia	-12967
▁ath	-12968
raged	-12969
▁penn	-12970
oso	-12971
;'	-12972
▁unnatural	-12973
▁Robinson	-12974
▁Must	-12975
▁slay	-12976
▁imaginary	-12977
▁23,	-12978
▁woke	-12979
▁Ken	-12980
Gr	-12981
▁destination	-12982
▁drain	-12983
▁madame	-12984
Two	-12985
▁ramp	-12986
▁discoura	-12987
▁clinging	-12988
▁speculation	-12989
▁indefinite	-12990
▁steward	-12991
oma	-12992
▁Paradise	-12993
▁blossoms	-12994
www	-12995
udder	-12996
lements	-12997
▁shocked	-12998
▁Miller	-12999
▁Desc	-13000
▁especial	-13001
▁exaggerated	-13002
▁mig	-13003
▁mustn	-13004
▁soap	-13005
parable	-13006
ummer	-13007
▁Opp	-13008
▁||	-13009
▁hail	-13010
▁Johan	-13011
▁rulers	-13012
▁resembles	-13013
First	-13014
▁squee	-13015
▁bounded	-13016
▁penetrated	-13017
olitan	-13018
▁kneeling	-13019
▁Wag	-13020
▁travels	-13021
▁disob	-13022
▁hereditary	-13023
▁Haz	-13024
anners	-13025
imore	-13026
rift	-13027
▁Rachel	-13028
salm	-13029
▁Spart	-13030
▁refusing	-13031
tem	-13032
rances	-13033
▁unacc	-13034
18.	-13035
▁thrill	-13036
▁hostess	-13037
▁rites	-13038
▁oxy	-13039
▁phant	-13040
▁productions	-13041
▁advert	-13042
court	-13043
▁actor	-13044
amous	-13045
▁creeping	-13046
▁chronic	-13047
ean	-13048
FN	-13049
vered	-13050
▁emble	-13051
▁remed	-13052
▁lodgings	-13053
▁inland	-13054
▁Arabs	-13055
▁roofs	-13056
▁telegram	-13057
▁Jove	-13058
69	-13059
▁eastward	-13060
________	-13061
eron	-13062
ureau	-13063
▁assail	-13064
enet	-13065
▁shots	-13066
ali	-13067
▁numbered	-13068
▁Gulf	-13069
▁Almost	-13070
▁Tru	-13071
▁pursuing	-13072
Gu	-13073
wy	-13074
▁Ach	-13075
▁underneath	-13076
▁Lyd	-13077
▁sheltered	-13078
aron	-13079
rophe	-13080
▁essay	-13081
▁Beyond	-13082
▁Notes	-13083
ernon	-13084
▁binding	-13085
▁‭	-13086
▁dearly	-13087
▁verdict	-13088
ORN	-13089
▁Nether	-13090
▁Quar	-13091
▁ivory	-13092
▁stif	-13093
ben	-13094
▁Harri	-13095
▁oy	-13096
▁bount	-13097
▁tiger	-13098
▁rifles	-13099
ét	-13100
▁lazy	-13101
▁Fourth	-13102
---+	-13103
▁attributes	-13104
▁scound	-13105
▁accompanying	-13106
▁trunks	-13107
▁bursting	-13108
iley	-13109
▁Amy	-13110
cond	-13111
▁oven	-13112
found	-13113
▁invalid	-13114
.--"	-13115
▁Caroline	-13116
▁Ali	-13117
▁connex	-13118
▁alcohol	-13119
▁electricity	-13120
athan	-13121
▁enlightened	-13122
▁roared	-13123
▁poly	-13124
▁bayon	-13125
▁ascribed	-13126
▁remembering	-13127
vard	-13128
▁Ry	-13129
hour	-13130
▁mare	-13131
▁Wednesday	-13132
▁79	-13133
;”	-13134
▁fancies	-13135
▁depl	-13136
▁concentrated	-13137
jah	-13138
▁behaved	-13139
▁grip	-13140
put	-13141
▁slack	-13142
▁magistrates	-13143
▁stormy	-13144
?_	-13145
▁pearls	-13146
chie	-13147
▁500	-13148
▁relationship	-13149
arious	-13150
oks	-13151
▁misfortunes	-13152
▁admirably	-13153
▁dissip	-13154
▁genial	-13155
▁keeper	-13156
▁mand	-13157
lay	-13158
▁Prussian	-13159
▁Annie	-13160
▁Lower	-13161
▁canoes	-13162
▁domain	-13163
▁valued	-13164
▁ascent	-13165
▁luncheon	-13166
▁located	-13167
▁shrine	-13168
▁glare	-13169
▁picking	-13170
▁goose	-13171
▁scold	-13172
▁respectively	-13173
▁WAR	-13174
▁Butler	-13175
▁bub	-13176
▁$1	-13177
▁argued	-13178
▁Gaul	-13179
▁approve	-13180
gi	-13181
▁expert	-13182
ignant	-13183
▁fuel	-13184
▁preliminary	-13185
cius	-13186
▁Confederate	-13187
third	-13188
▁Ocean	-13189
▁counting	-13190
▁mak	-13191
▁Hold	-13192
▁dwarf	-13193
▁Sister	-13194
▁distrust	-13195
roit	-13196
name	-13197
▁militia	-13198
▁distances	-13199
▁coats	-13200
icut	-13201
▁Division	-13202
▁complaints	-13203
▁cylinder	-13204
▁momentary	-13205
▁resignation	-13206
▁despise	-13207
tenance	-13208
frey	-13209
EAR	-13210
▁infirm	-13211
▁poetical	-13212
cons	-13213
▁roaring	-13214
illon	-13215
▁destitute	-13216
▁Salt	-13217
▁dares	-13218
▁WAS	-13219
HAM	-13220
▁muff	-13221
▁PERISP	-13222
▁votes	-13223
▁XVII	-13224
OMENI	-13225
▁HEN	-13226
▁PERISPOMENI	-13227
dish	-13228
▁Marian	-13229
▁embarrassment	-13230
icent	-13231
▁canon	-13232
boats	-13233
▁whatsoever	-13234
▁propag	-13235
▁Nobody	-13236
▁Felix	-13237
▁mirac	-13238
▁Valent	-13239
▁hire	-13240
▁layer	-13241
▁graves	-13242
▁blunt	-13243
▁bou	-13244
YS	-13245
▁Laure	-13246
▁Round	-13247
▁partners	-13248
imus	-13249
▁Stew	-13250
▁dismal	-13251
▁Æ	-13252
▁cured	-13253
▁Report	-13254
issance	-13255
pg	-13256
▁emphasis	-13257
▁transparent	-13258
vice	-13259
iller	-13260
▁rewarded	-13261
▁Rey	-13262
▁fortunately	-13263
▁cautious	-13264
▁expressly	-13265
▁Wellington	-13266
aza	-13267
▁sternly	-13268
TO	-13269
sery	-13270
▁jaw	-13271
▁Aud	-13272
▁patriotism	-13273
▁Trinity	-13274
.[4	-13275
▁Represent	-13276
▁contemplation	-13277
esse	-13278
▁eccentric	-13279
▁noisy	-13280
▁Sweden	-13281
▁today	-13282
▁snatched	-13283
▁horizontal	-13284
atrice	-13285
▁reins	-13286
▁fishes	-13287
▁includes	-13288
▁softened	-13289
▁obligations	-13290
iry	-13291
heim	-13292
▁27,	-13293
▁keenly	-13294
▁comedy	-13295
▁spoiled	-13296
Ple	-13297
atern	-13298
ERAL	-13299
▁societies	-13300
▁strings	-13301
street	-13302
▁destroying	-13303
▁henceforth	-13304
▁bullets	-13305
▁Age	-13306
▁wolves	-13307
▁scanty	-13308
▁downstairs	-13309
▁Newton	-13310
▁trumpet	-13311
mel	-13312
):	-13313
ulses	-13314
▁viewed	-13315
▁converse	-13316
▁Oft	-13317
▁Sergeant	-13318
▁unquestion	-13319
▁orthodox	-13320
▁needn	-13321
▁telephone	-13322
▁vegetation	-13323
Enter	-13324
▁PART	-13325
▁ropes	-13326
▁26,	-13327
tar	-13328
▁lawyers	-13329
▁obstinate	-13330
Father	-13331
▁asser	-13332
rosc	-13333
▁assumption	-13334
bone	-13335
▁indulge	-13336
Ibid	-13337
▁padd	-13338
_?	-13339
▁arisen	-13340
▁appearances	-13341
▁Books	-13342
inian	-13343
▁acceptance	-13344
▁jaws	-13345
▁honestly	-13346
▁barbarous	-13347
▁Seven	-13348
▁hasten	-13349
▁sciences	-13350
▁Bee	-13351
▁liking	-13352
▁ditch	-13353
▁shaped	-13354
80	-13355
▁Switzer	-13356
▁navigation	-13357
ignty	-13358
ONS	-13359
lier	-13360
▁herds	-13361
unity	-13362
▁inasmuch	-13363
▁xi	-13364
overe	-13365
▁Gods	-13366
▁attorney	-13367
▁brightness	-13368
▁Constance	-13369
▁ejac	-13370
▁seemingly	-13371
▁þ	-13372
▁restrain	-13373
▁bleeding	-13374
▁conventional	-13375
▁publicly	-13376
itative	-13377
▁persever	-13378
▁Gener	-13379
▁Mich	-13380
▁Disc	-13381
▁orator	-13382
▁conversion	-13383
▁pays	-13384
▁earthqu	-13385
▁doomed	-13386
▁continuing	-13387
▁technical	-13388
▁LONDON	-13389
▁76	-13390
respect	-13391
▁grains	-13392
▁indisc	-13393
▁apology	-13394
▁stur	-13395
▁breathless	-13396
school	-13397
▁luxur	-13398
▁BAR	-13399
▁Navy	-13400
sa	-13401
▁loo	-13402
▁Marshal	-13403
ieving	-13404
orig	-13405
▁gravel	-13406
▁miser	-13407
▁neighboring	-13408
▁decre	-13409
▁Thames	-13410
▁provincial	-13411
onna	-13412
▁possibilities	-13413
▁nic	-13414
▁paras	-13415
▁triang	-13416
▁novels	-13417
▁vot	-13418
▁energetic	-13419
▁flocks	-13420
cket	-13421
▁ora	-13422
▁pretence	-13423
▁wig	-13424
▁aggress	-13425
▁Armen	-13426
ripp	-13427
▁generously	-13428
▁ETA	-13429
▁jacket	-13430
taining	-13431
▁Bene	-13432
▁urge	-13433
▁Ves	-13434
▁contemplated	-13435
▁rever	-13436
iva	-13437
▁spending	-13438
▁Sout	-13439
▁destru	-13440
oyd	-13441
angled	-13442
▁Montreal	-13443
icia	-13444
▁peer	-13445
▁conscient	-13446
cur	-13447
ko	-13448
▁sire	-13449
▁personage	-13450
▁bot	-13451
▁bother	-13452
acies	-13453
▁Mit	-13454
▁19.	-13455
▁noblest	-13456
rowing	-13457
▁cf	-13458
AMP	-13459
▁fifteenth	-13460
▁Prom	-13461
▁Bened	-13462
▁brace	-13463
abouts	-13464
▁cargo	-13465
▁louder	-13466
aga	-13467
▁scales	-13468
▁intolerable	-13469
ovah	-13470
▁ripp	-13471
god	-13472
iph	-13473
▁exceptions	-13474
▁cem	-13475
▁unusually	-13476
▁scrut	-13477
▁tedious	-13478
▁barrier	-13479
▁MU	-13480
▁gild	-13481
chand	-13482
-7	-13483
pot	-13484
▁consumption	-13485
▁Bear	-13486
▁preval	-13487
▁Ent	-13488
▁palaces	-13489
cery	-13490
borne	-13491
▁policeman	-13492
▁humility	-13493
▁pion	-13494
▁Mme	-13495
ickens	-13496
▁Andy	-13497
▁indulged	-13498
▁toast	-13499
▁instincts	-13500
hart	-13501
▁transformed	-13502
▁impud	-13503
▁Pedro	-13504
hu	-13505
ACH	-13506
▁Eth	-13507
▁devils	-13508
rament	-13509
▁embod	-13510
▁Petersburg	-13511
▁distressed	-13512
▁pulpit	-13513
▁Wallace	-13514
...."	-13515
▁Mistress	-13516
▁throws	-13517
▁AE	-13518
onian	-13519
▁seeks	-13520
▁encouraging	-13521
▁favoured	-13522
▁moisture	-13523
▁regretted	-13524
▁parlour	-13525
chance	-13526
istered	-13527
54	-13528
▁indulgence	-13529
human	-13530
▁crystal	-13531
▁precaution	-13532
ender	-13533
▁unin	-13534
orie	-13535
IZ	-13536
▁Bus	-13537
pine	-13538
byter	-13539
▁Switzerland	-13540
anges	-13541
enched	-13542
▁illustrate	-13543
▁beck	-13544
▁Alexandria	-13545
▁fascinating	-13546
".	-13547
▁begging	-13548
▁stain	-13549
CHE	-13550
pus	-13551
▁Patty	-13552
▁wickedness	-13553
▁wreath	-13554
abs	-13555
2)	-13556
office	-13557
▁Bea	-13558
▁pairs	-13559
▁joining	-13560
▁crash	-13561
▁Magazine	-13562
rified	-13563
▁intimacy	-13564
▁District	-13565
▁renders	-13566
conscious	-13567
▁statesman	-13568
▁annually	-13569
▁impressive	-13570
▁troublesome	-13571
▁Until	-13572
▁expans	-13573
strong	-13574
▁71	-13575
fer	-13576
olve	-13577
▁doings	-13578
▁Fil	-13579
▁footing	-13580
rehens	-13581
▁darker	-13582
▁Patrick	-13583
▁crosses	-13584
▁Stanley	-13585
▁whereof	-13586
▁melody	-13587
▁Thompson	-13588
ishable	-13589
▁annoyance	-13590
▁overwhelming	-13591
▁pitched	-13592
▁incomp	-13593
▁logic	-13594
▁153	-13595
ede	-13596
▁candidate	-13597
cils	-13598
▁freight	-13599
▁Dog	-13600
▁scatter	-13601
▁seizing	-13602
▁Lib	-13603
▁Charley	-13604
▁unique	-13605
▁nobleman	-13606
▁horrors	-13607
roduction	-13608
▁emancip	-13609
iol	-13610
skin	-13611
icipal	-13612
aman	-13613
mediate	-13614
▁discussing	-13615
▁DEAR	-13616
▁factor	-13617
▁oppression	-13618
▁stripped	-13619
▁modesty	-13620
utton	-13621
▁Natural	-13622
King	-13623
zar	-13624
▁rip	-13625
▁variations	-13626
▁Set	-13627
▁administered	-13628
▁tame	-13629
istence	-13630
▁epis	-13631
▁lib	-13632
▁Lud	-13633
▁Cob	-13634
▁repetition	-13635
▁burg	-13636
▁Ford	-13637
▁identified	-13638
aters	-13639
▁nineteenth	-13640
▁warlike	-13641
▁teasp	-13642
▁Into	-13643
▁huts	-13644
▁Fortunately	-13645
▁Zeal	-13646
▁restraint	-13647
▁25.	-13648
occup	-13649
▁Easter	-13650
▁ghast	-13651
inisc	-13652
kshire	-13653
▁unkind	-13654
▁Gos	-13655
▁humbly	-13656
▁afflicted	-13657
▁Khan	-13658
▁wears	-13659
▁Transl	-13660
▁goal	-13661
▁voted	-13662
berries	-13663
▁striving	-13664
▁Station	-13665
▁yawn	-13666
▁GEORGE	-13667
▁stooped	-13668
▁furnace	-13669
cting	-13670
▁program	-13671
▁lesser	-13672
▁Harris	-13673
▁boughs	-13674
▁advances	-13675
▁bonnet	-13676
▁struggles	-13677
▁hinder	-13678
▁demonstration	-13679
APPA	-13680
emption	-13681
▁interposed	-13682
▁earnestness	-13683
▁breeding	-13684
CL	-13685
▁heres	-13686
▁turf	-13687
▁waking	-13688
▁engraved	-13689
▁Som	-13690
▁whoever	-13691
▁superstitious	-13692
▁Too	-13693
▁dissatisf	-13694
▁Da	-13695
▁drawings	-13696
▁quoth	-13697
!_"	-13698
▁Num	-13699
▁Family	-13700
jected	-13701
Any	-13702
dens	-13703
▁bigger	-13704
▁groaned	-13705
▁swamp	-13706
avan	-13707
▁Service	-13708
renched	-13709
▁conjecture	-13710
▁overwhelmed	-13711
rag	-13712
▁thickly	-13713
ittered	-13714
▁eyel	-13715
▁KAPPA	-13716
▁Sidney	-13717
▁hurled	-13718
ronted	-13719
▁deleg	-13720
▁approx	-13721
▁resembled	-13722
▁ornamented	-13723
▁curved	-13724
▁ses	-13725
leigh	-13726
▁Burton	-13727
▁cardinal	-13728
bi	-13729
harine	-13730
▁cogn	-13731
olt	-13732
▁cran	-13733
▁loft	-13734
▁governments	-13735
▁FIRST	-13736
IEL	-13737
▁Person	-13738
▁nod	-13739
▁affecting	-13740
▁consecrated	-13741
umpt	-13742
anthrop	-13743
hement	-13744
▁patriotic	-13745
▁stew	-13746
▁stockings	-13747
53	-13748
▁Cicero	-13749
▁excepting	-13750
grand	-13751
▁Ott	-13752
▁Bud	-13753
▁plaint	-13754
▁counties	-13755
▁collecting	-13756
▁differently	-13757
---	-13758
▁Ari	-13759
poss	-13760
manship	-13761
▁awfully	-13762
quin	-13763
▁coolly	-13764
▁Eleanor	-13765
▁supposition	-13766
▁ALL	-13767
▁Bag	-13768
▁aren	-13769
▁Super	-13770
▁resisted	-13771
▁MSS	-13772
▁pastor	-13773
▁jung	-13774
▁maintenance	-13775
▁(?),	-13776
▁Years	-13777
mers	-13778
▁Mall	-13779
▁Virg	-13780
▁Raj	-13781
▁explosion	-13782
▁uncertainty	-13783
▁constitu	-13784
▁Joy	-13785
cat	-13786
▁marrying	-13787
except	-13788
iddle	-13789
ennessee	-13790
gies	-13791
OUSE	-13792
▁communion	-13793
▁1:	-13794
▁corridor	-13795
▁shrie	-13796
▁prevailing	-13797
▁modes	-13798
▁Roland	-13799
oil	-13800
▁gulf	-13801
▁melod	-13802
▁superflu	-13803
▁moor	-13804
▁Peggy	-13805
▁deposit	-13806
▁shattered	-13807
▁baff	-13808
idious	-13809
▁goat	-13810
▁Spencer	-13811
▁kick	-13812
▁insignificant	-13813
▁84	-13814
inia	-13815
lorn	-13816
arches	-13817
▁Ivan	-13818
▁HOW	-13819
cad	-13820
▁disast	-13821
▁decoration	-13822
forward	-13823
▁backwards	-13824
▁vein	-13825
▁cats	-13826
▁dispersed	-13827
▁Origin	-13828
21	-13829
▁ribbon	-13830
▁mayor	-13831
▁IT	-13832
ishly	-13833
▁Ship	-13834
▁forgiveness	-13835
gow	-13836
▁rubbing	-13837
▁quivering	-13838
▁fortified	-13839
▁improb	-13840
▁quarre	-13841
.+	-13842
bad	-13843
▁expedient	-13844
▁77	-13845
▁actors	-13846
▁adjacent	-13847
mate	-13848
hr	-13849
▁Main	-13850
▁lumber	-13851
▁amounted	-13852
▁wiped	-13853
▁attribute	-13854
sett	-13855
▁Republican	-13856
▁fiend	-13857
▁Aff	-13858
black	-13859
▁Cartha	-13860
▁Fern	-13861
mad	-13862
top	-13863
isy	-13864
▁stubborn	-13865
edar	-13866
▁secre	-13867
▁curt	-13868
▁seq	-13869
urning	-13870
▁Christopher	-13871
▁powd	-13872
▁reappe	-13873
▁Bod	-13874
▁vices	-13875
▁bridges	-13876
▁Lore	-13877
▁lays	-13878
▁Florida	-13879
▁lacking	-13880
▁rans	-13881
▁heel	-13882
Does	-13883
ranch	-13884
▁Egyptians	-13885
▁util	-13886
▁Warren	-13887
ITE	-13888
▁Foot	-13889
▁perilous	-13890
▁magnitude	-13891
23	-13892
INGS	-13893
ictionary	-13894
▁skirm	-13895
▁exterior	-13896
▁ingenuity	-13897
▁Burke	-13898
ABLE	-13899
ieg	-13900
brows	-13901
▁deem	-13902
▁Chapel	-13903
▁aloft	-13904
Great	-13905
▁reared	-13906
keep	-13907
▁mournful	-13908
▁harp	-13909
oty	-13910
anus	-13911
▁Carr	-13912
▁sentimental	-13913
sea	-13914
ht	-13915
▁whale	-13916
▁treating	-13917
▁treatise	-13918
▁Ark	-13919
▁suits	-13920
▁obstacle	-13921
▁float	-13922
▁rescued	-13923
▁loaf	-13924
▁yoke	-13925
▁detained	-13926
▁worm	-13927
▁oxygen	-13928
page	-13929
▁lam	-13930
▁Esther	-13931
▁Kansas	-13932
▁pyram	-13933
▁potent	-13934
pecially	-13935
fortunately	-13936
UTH	-13937
▁settling	-13938
▁WE	-13939
▁farms	-13940
▁Manchester	-13941
▁richest	-13942
▁calamity	-13943
antes	-13944
▁mistakes	-13945
▁stained	-13946
▁fits	-13947
▁Tam	-13948
▁obstacles	-13949
▁housekeeper	-13950
▁predomin	-13951
▁spacious	-13952
▁APP	-13953
▁overhe	-13954
27	-13955
▁cuts	-13956
▁Ve	-13957
▁ounce	-13958
▁130	-13959
orph	-13960
▁implied	-13961
remacy	-13962
▁MISS	-13963
▁foam	-13964
▁Swift	-13965
▁execute	-13966
boys	-13967
die	-13968
▁seamen	-13969
▁perpendicular	-13970
▁ghastly	-13971
**	-13972
▁illeg	-13973
▁bridle	-13974
▁shan	-13975
▁reef	-13976
terbury	-13977
▁detachment	-13978
gal	-13979
▁annihil	-13980
▁Edu	-13981
lit	-13982
▁urgent	-13983
▁Command	-13984
▁sangu	-13985
▁Silver	-13986
▁depression	-13987
▁Bry	-13988
▁Table	-13989
▁physicians	-13990
▁Fab	-13991
▁referring	-13992
▁expose	-13993
▁bluff	-13994
▁civilisation	-13995
▁Battle	-13996
▁foss	-13997
▁ment	-13998
▁pend	-13999
▁Elect	-14000
▁Turner	-14001
▁Ale	-14002
▁prescribed	-14003
▁interruption	-14004
xts	-14005
▁Cord	-14006
▁scor	-14007
elling	-14008
ousins	-14009
▁crush	-14010
▁vehement	-14011
▁compel	-14012
thus	-14013
▁scared	-14014
di	-14015
▁CHARLES	-14016
▁Tennessee	-14017
▁metaphys	-14018
▁nineteen	-14019
▁rely	-14020
▁wondrous	-14021
▁trading	-14022
▁Enter	-14023
▁Front	-14024
▁refrain	-14025
▁Emma	-14026
love	-14027
▁endeavor	-14028
▁helm	-14029
▁deme	-14030
▁void	-14031
▁Lily	-14032
their	-14033
ylum	-14034
▁Jehovah	-14035
▁embarrassed	-14036
▁projecting	-14037
mediately	-14038
▁Kit	-14039
▁ecl	-14040
▁monkey	-14041
eren	-14042
▁elastic	-14043
▁Brist	-14044
▁OLD	-14045
▁Supreme	-14046
▁subordinate	-14047
▁commonplace	-14048
without	-14049
▁obstin	-14050
▁Prophet	-14051
▁negotiations	-14052
▁21.	-14053
SH	-14054
▁Commander	-14055
handed	-14056
▁compensation	-14057
▁trot	-14058
issa	-14059
▁muscular	-14060
▁Sau	-14061
▁convert	-14062
▁reinforce	-14063
antine	-14064
▁darted	-14065
▁obedient	-14066
▁Volta	-14067
ilion	-14068
▁assuming	-14069
anta	-14070
▁brighter	-14071
▁tended	-14072
groom	-14073
▁vertical	-14074
▁aimed	-14075
ubb	-14076
▁plunge	-14077
▁liv	-14078
▁Infantry	-14079
▁wrist	-14080
▁entertaining	-14081
▁snuff	-14082
▁hounds	-14083
▁Rio	-14084
▁rates	-14085
▁gratified	-14086
▁pleases	-14087
▁fow	-14088
▁voluntary	-14089
Car	-14090
▁growled	-14091
itched	-14092
sequently	-14093
▁telesc	-14094
▁Saints	-14095
▁copied	-14096
▁Johnny	-14097
▁Norfolk	-14098
vre	-14099
▁73	-14100
▁upro	-14101
El	-14102
assy	-14103
▁ticket	-14104
▁despatch	-14105
▁ascending	-14106
▁liver	-14107
▁Brook	-14108
▁resided	-14109
wixt	-14110
▁lame	-14111
▁posterity	-14112
▁sexes	-14113
58	-14114
▁correctly	-14115
▁scout	-14116
ollen	-14117
atha	-14118
▁courses	-14119
onde	-14120
▁Gi	-14121
riend	-14122
oire	-14123
▁ties	-14124
▁iniqu	-14125
▁neatly	-14126
▁worshipped	-14127
▁29,	-14128
▁code	-14129
▁expressive	-14130
▁pulse	-14131
▁DEL	-14132
Shall	-14133
▁intensely	-14134
▁retreated	-14135
▁ape	-14136
▁LIFE	-14137
▁vaguely	-14138
▁Corinth	-14139
▁sovereignty	-14140
bage	-14141
▁Inter	-14142
▁sage	-14143
▁sentin	-14144
opl	-14145
▁threads	-14146
chet	-14147
▁Mend	-14148
▁tool	-14149
▁consumm	-14150
▁adoption	-14151
▁besee	-14152
▁kisses	-14153
▁crowns	-14154
▁ribs	-14155
▁tout	-14156
▁88	-14157
▁clubs	-14158
▁[1]	-14159
▁premises	-14160
grims	-14161
pling	-14162
▁400	-14163
▁editions	-14164
▁81	-14165
ifted	-14166
▁hood	-14167
▁Distributed	-14168
▁dy	-14169
▁acquies	-14170
▁providing	-14171
▁unim	-14172
▁famine	-14173
▁vir	-14174
▁birthday	-14175
▁Isle	-14176
▁nostri	-14177
essed	-14178
▁Sad	-14179
▁penetrate	-14180
▁courteous	-14181
▁rejoicing	-14182
▁legislature	-14183
▁costs	-14184
▁monoton	-14185
▁mole	-14186
onne	-14187
59	-14188
▁DR	-14189
obile	-14190
▁opt	-14191
este	-14192
▁abomin	-14193
▁accidents	-14194
▁grieved	-14195
▁inflamm	-14196
▁spectacles	-14197
▁environ	-14198
thm	-14199
lavery	-14200
▁disse	-14201
inders	-14202
orters	-14203
▁Crow	-14204
dney	-14205
▁Few	-14206
riber	-14207
▁VOL	-14208
bound	-14209
nde	-14210
formed	-14211
▁worthless	-14212
▁darkened	-14213
▁pert	-14214
▁furiously	-14215
otent	-14216
▁beforehand	-14217
▁forts	-14218
▁recur	-14219
▁uneasiness	-14220
▁Rupert	-14221
▁resident	-14222
▁vehicle	-14223
▁Harvey	-14224
▁framed	-14225
▁vainly	-14226
▁captains	-14227
▁separately	-14228
ον	-14229
▁ank	-14230
▁repentance	-14231
▁aus	-14232
▁originated	-14233
▁Strange	-14234
▁Bot	-14235
▁eighth	-14236
▁threats	-14237
▁explaining	-14238
▁22.	-14239
Ger	-14240
▁charter	-14241
▁lac	-14242
▁sturdy	-14243
▁phase	-14244
▁Baptist	-14245
▁hostility	-14246
▁Isab	-14247
▁Marj	-14248
▁exasper	-14249
Mother	-14250
▁dragging	-14251
▁mute	-14252
▁traversed	-14253
those	-14254
ingle	-14255
▁gallop	-14256
▁Troy	-14257
▁Eu	-14258
▁cob	-14259
▁perv	-14260
▁Dame	-14261
▁trench	-14262
▁vicious	-14263
▁palp	-14264
▁consul	-14265
▁promote	-14266
▁swelling	-14267
▁agriculture	-14268
▁YOU	-14269
▁drifted	-14270
▁pac	-14271
▁luc	-14272
▁torch	-14273
▁stress	-14274
▁commiss	-14275
▁talks	-14276
▁clause	-14277
▁catast	-14278
ocrates	-14279
▁overlooked	-14280
)--	-14281
▁soothing	-14282
Twas	-14283
▁maidens	-14284
▁alternative	-14285
▁realise	-14286
▁resolutions	-14287
▁orderly	-14288
▁particles	-14289
▁Minor	-14290
▁cradle	-14291
▁ἐ	-14292
eting	-14293
▁flags	-14294
var	-14295
▁restrained	-14296
ologist	-14297
▁Buff	-14298
▁accurately	-14299
▁courty	-14300
▁--------	-14301
▁guides	-14302
▁Treas	-14303
▁ridicule	-14304
xx	-14305
Nor	-14306
▁tropical	-14307
▁subt	-14308
▁judicial	-14309
▁accommodation	-14310
▁eve	-14311
▁tough	-14312
▁Job	-14313
lete	-14314
itud	-14315
▁compromise	-14316
▁cable	-14317
Mem	-14318
brown	-14319
▁Isabel	-14320
▁skeleton	-14321
▁sweat	-14322
▁elderly	-14323
▁aqu	-14324
▁dominions	-14325
▁unbroken	-14326
▁toes	-14327
▁Bor	-14328
▁nursery	-14329
▁indicates	-14330
Rem	-14331
bli	-14332
stood	-14333
▁imported	-14334
▁Leo	-14335
▁ravine	-14336
▁entrusted	-14337
▁shudder	-14338
▁jam	-14339
▁assented	-14340
rable	-14341
cun	-14342
adays	-14343
▁painfully	-14344
▁scope	-14345
▁fores	-14346
ube	-14347
▁infall	-14348
▁peculiarities	-14349
▁variation	-14350
▁robbers	-14351
▁energies	-14352
▁tasted	-14353
weed	-14354
▁excav	-14355
▁Hend	-14356
▁laun	-14357
▁trivial	-14358
▁respectful	-14359
▁sombre	-14360
▁Poss	-14361
ITAL	-14362
▁destructive	-14363
▁laure	-14364
OB	-14365
▁brim	-14366
▁divorce	-14367
▁contribute	-14368
▁effic	-14369
ADY	-14370
ernal	-14371
▁Fortune	-14372
▁crooked	-14373
▁Pict	-14374
▁Independ	-14375
▁stan	-14376
igation	-14377
could	-14378
▁qualified	-14379
▁buying	-14380
▁extinct	-14381
▁desperately	-14382
RESS	-14383
▁survived	-14384
▁gains	-14385
▁chicken	-14386
▁discord	-14387
▁pines	-14388
▁ghosts	-14389
▁wrongs	-14390
▁sands	-14391
Get	-14392
▁Already	-14393
▁Whilst	-14394
▁unmist	-14395
▁clerks	-14396
▁connexion	-14397
▁Fleet	-14398
▁champion	-14399
▁lighting	-14400
▁pension	-14401
aternal	-14402
▁abide	-14403
▁dusty	-14404
URN	-14405
▁Apollo	-14406
▁stab	-14407
▁pasture	-14408
▁Team	-14409
▁Behind	-14410
ANK	-14411
▁Basil	-14412
▁superb	-14413
49	-14414
▁Roll	-14415
▁cigarette	-14416
▁undist	-14417
▁dragon	-14418
18,	-14419
▁bags	-14420
itiz	-14421
▁“‘	-14422
esley	-14423
bat	-14424
▁148	-14425
flies	-14426
▁Moon	-14427
▁gleaming	-14428
comm	-14429
▁Swiss	-14430
▁Janet	-14431
▁disli	-14432
▁Back	-14433
▁differs	-14434
ulsed	-14435
................	-14436
▁tearing	-14437
▁rabb	-14438
▁Morton	-14439
ppy	-14440
▁enforce	-14441
Har	-14442
umbered	-14443
▁fragrant	-14444
escend	-14445
aunted	-14446
angel	-14447
▁Kirk	-14448
fields	-14449
▁Ll	-14450
▁suck	-14451
▁requirements	-14452
▁sleepy	-14453
▁approaches	-14454
▁screamed	-14455
▁imitate	-14456
▁resume	-14457
▁celestial	-14458
▁transfer	-14459
▁Protestants	-14460
▁insane	-14461
▁Vincent	-14462
▁spaces	-14463
▁attach	-14464
▁honored	-14465
▁labore	-14466
▁banner	-14467
▁Cair	-14468
▁Julian	-14469
▁advocate	-14470
▁Brigade	-14471
▁Guards	-14472
▁implies	-14473
▁tablesp	-14474
▁forgiven	-14475
hate	-14476
▁memorial	-14477
▁supremacy	-14478
▁Sig	-14479
▁sall	-14480
▁Gir	-14481
ISE	-14482
▁Hop	-14483
stock	-14484
▁metals	-14485
▁incorpor	-14486
▁terrific	-14487
▁dimly	-14488
▁muscle	-14489
▁Soul	-14490
▁00	-14491
cuse	-14492
▁Empress	-14493
▁Chaucer	-14494
orting	-14495
_.]	-14496
▁Andre	-14497
alia	-14498
▁vigorously	-14499
▁plantation	-14500
▁associates	-14501
▁Norway	-14502
▁Connect	-14503
▁chariot	-14504
▁Aut	-14505
▁heaps	-14506
▁mound	-14507
bourne	-14508
▁stating	-14509
▁fugitive	-14510
▁novelty	-14511
66	-14512
ori	-14513
▁sham	-14514
▁unexpectedly	-14515
▁toile	-14516
▁magazine	-14517
▁splendor	-14518
otte	-14519
▁productive	-14520
▁joyful	-14521
▁captivity	-14522
horse	-14523
▁tolerably	-14524
▁whir	-14525
Art	-14526
▁salute	-14527
hampton	-14528
▁requiring	-14529
▁disastrous	-14530
▁Bul	-14531
▁expresses	-14532
vate	-14533
▁scal	-14534
▁enforced	-14535
▁afar	-14536
▁Hastings	-14537
yss	-14538
▁eyebrows	-14539
▁increases	-14540
▁trout	-14541
▁handled	-14542
▁aforesaid	-14543
▁orche	-14544
▁compliments	-14545
▁cough	-14546
▁rags	-14547
▁opponent	-14548
▁stool	-14549
▁Jesuits	-14550
▁stature	-14551
▁Pick	-14552
▁Seb	-14553
▁Craw	-14554
ologists	-14555
▁resurrection	-14556
▁reconc	-14557
OUND	-14558
ifer	-14559
atis	-14560
▁Denmark	-14561
IDE	-14562
▁controlled	-14563
▁GEN	-14564
▁terra	-14565
▁Pompe	-14566
▁bravery	-14567
▁brightly	-14568
▁anew	-14569
▁spray	-14570
▁Syn	-14571
▁expenditure	-14572
▁worried	-14573
igg	-14574
▁Leices	-14575
▁fewer	-14576
▁conductor	-14577
▁passionately	-14578
still	-14579
RIST	-14580
apse	-14581
▁coins	-14582
▁violet	-14583
▁(3)	-14584
athy	-14585
▁currents	-14586
▁pursuits	-14587
▁embarked	-14588
▁admon	-14589
onson	-14590
▁Oak	-14591
▁grotes	-14592
▁fren	-14593
▁JAMES	-14594
ortion	-14595
▁dagger	-14596
alend	-14597
▁passenger	-14598
▁sleeve	-14599
▁Ban	-14600
▁edifice	-14601
▁Shaks	-14602
▁judging	-14603
▁loses	-14604
▁dazzling	-14605
new	-14606
ALE	-14607
▁Lieut	-14608
▁Beatrice	-14609
▁Cov	-14610
▁Joshua	-14611
Bet	-14612
▁tam	-14613
▁lifet	-14614
▁dexter	-14615
▁christ	-14616
▁Burgund	-14617
▁Allah	-14618
▁rains	-14619
cor	-14620
PT	-14621
▁allegiance	-14622
▁Jen	-14623
▁beads	-14624
▁hob	-14625
▁shadowy	-14626
▁Gaz	-14627
▁Diana	-14628
▁suspense	-14629
iliar	-14630
▁pic	-14631
▁Vis	-14632
▁interm	-14633
▁stepping	-14634
▁nap	-14635
▁pigs	-14636
orde	-14637
▁barra	-14638
▁Everybody	-14639
▁pagan	-14640
▁benefits	-14641
▁Op	-14642
▁redou	-14643
▁saloon	-14644
▁XIX	-14645
▁inflict	-14646
▁AG	-14647
▁Notwithstanding	-14648
▁vicar	-14649
▁escaping	-14650
▁Humph	-14651
▁endurance	-14652
dis	-14653
▁140	-14654
▁integrity	-14655
racter	-14656
UBL	-14657
cr	-14658
lymp	-14659
▁23.	-14660
▁Harriet	-14661
▁YORK	-14662
EGA	-14663
ceded	-14664
▁cousins	-14665
ORTH	-14666
▁skirt	-14667
▁didst	-14668
▁Bald	-14669
TERS	-14670
ophy	-14671
▁snapped	-14672
▁concrete	-14673
▁forlorn	-14674
cow	-14675
▁Lin	-14676
▁Cos	-14677
chamber	-14678
▁82	-14679
▁butcher	-14680
Ke	-14681
▁countless	-14682
▁worlds	-14683
▁insight	-14684
▁sunrise	-14685
▁Wright	-14686
▁tranquill	-14687
▁mini	-14688
▁supplement	-14689
._"	-14690
▁conceptions	-14691
▁theological	-14692
fif	-14693
▁conting	-14694
▁disappro	-14695
heres	-14696
▁analy	-14697
▁desolation	-14698
OUGH	-14699
▁knives	-14700
▁defects	-14701
twenty	-14702
▁patches	-14703
uties	-14704
▁Belgium	-14705
▁Maryland	-14706
▁bolt	-14707
▁Fate	-14708
▁110	-14709
▁Glas	-14710
▁shrugged	-14711
imited	-14712
▁lifetime	-14713
▁Ak	-14714
▁miner	-14715
▁exempl	-14716
ERY	-14717
▁blasp	-14718
▁Brid	-14719
▁dome	-14720
▁hare	-14721
▁legends	-14722
▁creep	-14723
▁Maggie	-14724
▁treacherous	-14725
▁Pay	-14726
▁encamped	-14727
utary	-14728
▁weeds	-14729
▁89	-14730
▁Walker	-14731
count	-14732
▁exceptional	-14733
itness	-14734
American	-14735
icans	-14736
iffe	-14737
▁pronounce	-14738
▁crum	-14739
Ha	-14740
▁pretext	-14741
▁Glou	-14742
▁occupying	-14743
▁infancy	-14744
▁foregoing	-14745
▁Mam	-14746
onymous	-14747
erved	-14748
▁Inquis	-14749
▁intu	-14750
aren	-14751
▁Syria	-14752
▁gaily	-14753
▁consequent	-14754
▁urging	-14755
▁pirates	-14756
▁Morm	-14757
▁fern	-14758
▁historians	-14759
▁Hood	-14760
rap	-14761
▁augment	-14762
▁treasury	-14763
▁majestic	-14764
▁traders	-14765
▁forcing	-14766
▁Online	-14767
▁industrious	-14768
▁Dante	-14769
▁battalion	-14770
sac	-14771
▁departments	-14772
horn	-14773
▁dart	-14774
▁rolls	-14775
▁steed	-14776
▁argue	-14777
▁delights	-14778
▁CONTENTS	-14779
days	-14780
PL	-14781
▁lingering	-14782
▁Hob	-14783
agram	-14784
▁arrog	-14785
▁accepting	-14786
▁Creator	-14787
▁THOM	-14788
▁http	-14789
▁firmness	-14790
▁Oper	-14791
>,	-14792
▁politeness	-14793
▁κα	-14794
▁revolutionary	-14795
▁Proofreading	-14796
▁metall	-14797
Fl	-14798
▁Anderson	-14799
▁nostrils	-14800
Has	-14801
arine	-14802
▁damn	-14803
isa	-14804
▁Ice	-14805
▁Direct	-14806
Sax	-14807
▁Stewart	-14808
▁maids	-14809
▁palms	-14810
▁Yellow	-14811
▁baptized	-14812
▁forbear	-14813
▁smoked	-14814
▁junction	-14815
▁endeavored	-14816
▁quarrels	-14817
ographer	-14818
▁Voltaire	-14819
▁dwellings	-14820
▁stren	-14821
▁feudal	-14822
ights	-14823
▁hangs	-14824
▁Zealand	-14825
▁abhor	-14826
▁homeward	-14827
ware	-14828
▁choked	-14829
▁temporal	-14830
▁correspondent	-14831
▁suicide	-14832
▁ferment	-14833
▁Heart	-14834
▁withered	-14835
▁alteration	-14836
▁pau	-14837
▁infer	-14838
▁calf	-14839
▁unsuccess	-14840
▁Sydney	-14841
▁excluded	-14842
▁coco	-14843
▁Bird	-14844
▁bail	-14845
▁soda	-14846
▁extinguished	-14847
uced	-14848
▁EM	-14849
▁Ez	-14850
cock	-14851
▁gloss	-14852
▁Number	-14853
owa	-14854
▁flatt	-14855
▁shawl	-14856
=.	-14857
▁piercing	-14858
▁Gren	-14859
▁wires	-14860
▁aristocracy	-14861
▁discrim	-14862
rice	-14863
▁Parker	-14864
▁pearl	-14865
urous	-14866
▁nun	-14867
▁Daw	-14868
▁Miles	-14869
▁Gio	-14870
▁95	-14871
should	-14872
▁mac	-14873
▁Mild	-14874
▁Calvin	-14875
▁needful	-14876
▁admiring	-14877
▁practise	-14878
▁rabbit	-14879
▁displeasure	-14880
▁hermit	-14881
▁contend	-14882
▁tas	-14883
inished	-14884
▁skirts	-14885
▁OMEGA	-14886
▁leaping	-14887
▁courtyard	-14888
▁squir	-14889
▁mischie	-14890
▁shares	-14891
▁Maud	-14892
▁joints	-14893
▁ranch	-14894
▁hailed	-14895
urt	-14896
▁transmitted	-14897
affect	-14898
atical	-14899
▁saluted	-14900
▁unchan	-14901
▁arbitrary	-14902
▁ib	-14903
▁motto	-14904
▁valiant	-14905
▁monotonous	-14906
▁Gert	-14907
▁disl	-14908
▁admiral	-14909
._—	-14910
coal	-14911
▁confinement	-14912
▁24.	-14913
▁lions	-14914
▁alternately	-14915
▁gasp	-14916
▁prox	-14917
▁maintaining	-14918
▁Dora	-14919
rium	-14920
▁83	-14921
▁insin	-14922
▁heavier	-14923
▁Tib	-14924
etery	-14925
▁bored	-14926
▁lb	-14927
▁honors	-14928
▁Legislature	-14929
1:	-14930
▁praises	-14931
▁boarding	-14932
▁lbs	-14933
Hen	-14934
▁wink	-14935
shop	-14936
▁Avenue	-14937
hl	-14938
▁dispose	-14939
▁Hook	-14940
▁pars	-14941
▁slim	-14942
▁ore	-14943
▁Dum	-14944
▁peaks	-14945
▁halls	-14946
▁sped	-14947
▁Iron	-14948
▁Keep	-14949
▁Shelley	-14950
sub	-14951
▁Consul	-14952
▁devised	-14953
▁shove	-14954
▁Ply	-14955
▁attacking	-14956
▁Conc	-14957
▁senior	-14958
▁publish	-14959
▁unfav	-14960
▁kissing	-14961
▁Holmes	-14962
▁shrink	-14963
▁overthrow	-14964
▁unmistak	-14965
▁Cole	-14966
▁Sev	-14967
▁ILL	-14968
▁Ff	-14969
▁violin	-14970
▁Chin	-14971
▁proving	-14972
cibly	-14973
▁scour	-14974
▁shift	-14975
bot	-14976
▁strand	-14977
▁shilling	-14978
▁Sherman	-14979
▁Reason	-14980
▁whispering	-14981
▁colonists	-14982
uration	-14983
▁condescend	-14984
▁traveling	-14985
▁vines	-14986
▁sinner	-14987
stones	-14988
▁Belle	-14989
án	-14990
▁habitual	-14991
▁waiter	-14992
▁Gabriel	-14993
▁divinity	-14994
girl	-14995
▁robbery	-14996
erk	-14997
▁Less	-14998
▁nail	-14999
▁apron	-15000
▁instinctively	-15001
▁Kil	-15002
rella	-15003
▁duel	-15004
▁ordained	-15005
▁weaker	-15006
▁commissioners	-15007
▁tries	-15008
▁packet	-15009
▁depressed	-15010
▁tombs	-15011
bish	-15012
▁Exam	-15013
OUNT	-15014
▁vous	-15015
Cor	-15016
▁hosts	-15017
ilation	-15018
▁betrot	-15019
▁topic	-15020
▁hardy	-15021
▁secular	-15022
▁idiot	-15023
▁Cabinet	-15024
▁paintings	-15025
IER	-15026
▁resulting	-15027
▁Wis	-15028
joined	-15029
utors	-15030
▁covenant	-15031
year	-15032
▁eminence	-15033
▁approbation	-15034
▁Blanche	-15035
▁Brus	-15036
AME	-15037
def	-15038
▁rascal	-15039
bie	-15040
▁CR	-15041
lace	-15042
▁anat	-15043
▁Maine	-15044
otic	-15045
▁axis	-15046
arians	-15047
▁weariness	-15048
]'	-15049
――	-15050
-------+	-15051
▁Pic	-15052
▁cavity	-15053
▁carn	-15054
▁Fifth	-15055
zza	-15056
▁Liberty	-15057
▁Alps	-15058
▁Class	-15059
▁Baltimore	-15060
▁locom	-15061
▁rhythm	-15062
English	-15063
▁odor	-15064
▁sympathies	-15065
▁stealth	-15066
▁inevitably	-15067
!)	-15068
yng	-15069
anni	-15070
▁crude	-15071
▁Things	-15072
aten	-15073
▁assuredly	-15074
▁expectations	-15075
quest	-15076
▁liberties	-15077
57	-15078
▁brew	-15079
▁executive	-15080
▁kindled	-15081
ref	-15082
▁Cel	-15083
▁pett	-15084
52>	-15085
ETH	-15086
▁Mans	-15087
▁research	-15088
▁glist	-15089
▁deceit	-15090
▁perceiving	-15091
▁merciful	-15092
[...]
