[PAD]	0
[UNK]	0
[BOS]	0
▁t	-0
he	-1
▁a	-2
in	-3
▁the	-4
▁o	-5
▁w	-6
re	-7
▁s	-8
nd	-9
er	-10
ha	-11
▁b	-12
is	-13
▁of	-14
ou	-15
on	-16
it	-17
ed	-18
en	-19
▁f	-20
▁c	-21
▁m	-22
▁and	-23
▁to	-24
es	-25
or	-26
▁p	-27
ing	-28
▁in	-29
▁d	-30
ar	-31
ll	-32
at	-33
an	-34
as	-35
▁l	-36
▁h	-37
▁n	-38
om	-39
▁he	-40
ic	-41
▁ha	-42
▁be	-43
le	-44
▁I	-45
▁g	-46
▁e	-47
hat	-48
ot	-49
ion	-50
st	-51
ut	-52
ow	-53
ve	-54
ent	-55
al	-56
se	-57
ly	-58
▁T	-59
im	-60
▁re	-61
▁th	-62
ce	-63
ld	-64
id	-65
▁that	-66
▁was	-67
▁on	-68
gh	-69
▁wh	-70
▁it	-71
ir	-72
▁u	-73
▁y	-74
et	-75
ver	-76
ith	-77
ur	-78
▁for	-79
ay	-80
▁"	-81
▁as	-82
▁with	-83
ro	-84
▁his	-85
▁is	-86
▁A	-87
▁S	-88
ct	-89
▁we	-90
ad	-91
▁st	-92
ri	-93
▁you	-94
ch	-95
▁The	-96
am	-97
her	-98
▁an	-99
▁M	-100
ght	-101
▁C	-102
ra	-103
▁not	-104
--	-105
▁at	-106
ter	-107
▁H	-108
▁had	-109
ill	-110
▁B	-111
if	-112
oo	-113
il	-114
▁se	-115
ould	-116
ain	-117
▁su	-118
ich	-119
▁by	-120
ke	-121
▁her	-122
ess	-123
▁de	-124
red	-125
rom	-126
▁which	-127
pe	-128
ore	-129
ul	-130
▁con	-131
all	-132
▁me	-133
ation	-134
▁W	-135
ge	-136
th	-137
▁or	-138
▁him	-139
▁so	-140
us	-141
▁P	-142
qu	-143
▁have	-144
ac	-145
and	-146
▁from	-147
est	-148
res	-149
▁ex	-150
▁v	-151
ome	-152
▁but	-153
▁L	-154
▁all	-155
▁sa	-156
nt	-157
ight	-158
▁ne	-159
▁1	-160
▁_	-161
▁this	-162
ers	-163
▁k	-164
ol	-165
ous	-166
ant	-167
ble	-168
ist	-169
pp	-170
▁were	-171
▁sh	-172
▁G	-173
▁F	-174
os	-175
▁she	-176
▁are	-177
▁whe	-178
em	-179
ust	-180
▁they	-181
▁r	-182
▁up	-183
▁my	-184
um	-185
ard	-186
▁who	-187
our	-188
ie	-189
▁D	-190
."	-191
art	-192
▁E	-193
ate	-194
▁man	-195
▁al	-196
ig	-197
▁com	-198
▁their	-199
▁one	-200
▁do	-201
ong	-202
el	-203
ast	-204
▁int	-205
▁them	-206
iv	-207
very	-208
▁R	-209
ive	-210
▁pro	-211
ame	-212
▁O	-213
ind	-214
ound	-215
pt	-216
un	-217
out	-218
▁no	-219
▁N	-220
ort	-221
▁wor	-222
ood	-223
ity	-224
han	-225
lf	-226
▁le	-227
▁been	-228
,"	-229
ak	-230
od	-231
ell	-232
▁ab	-233
ies	-234
ost	-235
▁would	-236
ough	-237
▁said	-238
▁He	-239
▁there	-240
ure	-241
ther	-242
reat	-243
▁pl	-244
▁kn	-245
ry	-246
▁J	-247
op	-248
▁will	-249
ect	-250
own	-251
▁out	-252
itt	-253
▁ar	-254
one	-255
ck	-256
ff	-257
▁when	-258
ish	-259
ment	-260
ine	-261
hed	-262
ag	-263
▁un	-264
▁j	-265
cc	-266
ide	-267
▁fe	-268
▁fa	-269
ose	-270
ond	-271
▁qu	-272
ci	-273
au	-274
▁sp	-275
ook	-276
▁more	-277
ass	-278
ence	-279
▁ag	-280
ance	-281
ven	-282
▁li	-283
▁It	-284
▁tim	-285
▁other	-286
ake	-287
self	-288
able	-289
per	-290
ru	-291
▁some	-292
▁go	-293
▁can	-294
ack	-295
▁any	-296
▁im	-297
ice	-298
▁has	-299
▁if	-300
▁ad	-301
▁into	-302
▁en	-303
▁(	-304
pl	-305
▁tw	-306
▁us	-307
end	-308
▁dis	-309
▁am	-310
ab	-311
▁cl	-312
ally	-313
▁ro	-314
ount	-315
ord	-316
▁than	-317
are	-318
ng	-319
▁2	-320
ud	-321
ade	-322
▁what	-323
▁ch	-324
ire	-325
▁could	-326
ove	-327
ite	-328
ions	-329
fter	-330
ary	-331
fore	-332
urn	-333
ree	-334
▁your	-335
▁very	-336
▁its	-337
ars	-338
ber	-339
▁time	-340
▁our	-341
ays	-342
▁sha	-343
ep	-344
wn	-345
ans	-346
▁great	-347
ress	-348
▁per	-349
ated	-350
age	-351
▁upon	-352
▁br	-353
ings	-354
nder	-355
▁pr	-356
other	-357
ace	-358
ered	-359
▁'	-360
▁Th	-361
ought	-362
▁Mr	-363
▁over	-364
ap	-365
ile	-366
▁part	-367
▁And	-368
▁In	-369
▁only	-370
oll	-371
ittle	-372
ved	-373
ious	-374
▁bl	-375
▁about	-376
▁But	-377
▁pre	-378
ere	-379
▁now	-380
▁should	-381
▁like	-382
ach	-383
▁know	-384
▁gr	-385
▁then	-386
▁tr	-387
▁“	-388
oy	-389
▁again	-390
▁off	-391
ied	-392
▁fl	-393
bl	-394
▁little	-395
▁after	-396
?"	-397
▁did	-398
tain	-399
hing	-400
ife	-401
av	-402
ick	-403
▁hand	-404
▁cha	-405
▁too	-406
uch	-407
▁see	-408
ink	-409
▁made	-410
ty	-411
▁two	-412
▁may	-413
cl	-414
▁po	-415
ather	-416
▁pe	-417
▁St	-418
▁fir	-419
▁[	-420
ild	-421
ull	-422
▁thr	-423
▁rem	-424
▁des	-425
ward	-426
ue	-427
ful	-428
▁V	-429
ne	-430
▁under	-431
▁res	-432
▁ye	-433
▁before	-434
▁K	-435
▁these	-436
ark	-437
ness	-438
▁ri	-439
▁such	-440
▁look	-441
ign	-442
▁how	-443
int	-444
▁good	-445
▁must	-446
▁long	-447
▁Y	-448
▁cont	-449
ip	-450
ise	-451
▁spe	-452
we	-453
▁first	-454
▁comp	-455
ER	-456
_,	-457
▁much	-458
▁where	-459
ian	-460
▁sc	-461
▁down	-462
▁ra	-463
▁bet	-464
▁3	-465
hen	-466
▁bec	-467
ons	-468
ran	-469
▁comm	-470
old	-471
▁every	-472
oss	-473
og	-474
ia	-475
▁|	-476
ath	-477
ft	-478
ory	-479
ces	-480
ition	-481
▁sm	-482
iss	-483
orn	-484
▁men	-485
▁acc	-486
▁imp	-487
▁cons	-488
▁ob	-489
▁old	-490
▁ind	-491
▁most	-492
iz	-493
ater	-494
▁own	-495
▁well	-496
._	-497
▁even	-498
▁day	-499
▁att	-500
ew	-501
▁aw	-502
ave	-503
ced	-504
ily	-505
ady	-506
ens	-507
▁say	-508
!"	-509
▁work	-510
ction	-511
▁never	-512
hes	-513
ations	-514
man	-515
▁pres	-516
▁those	-517
▁18	-518
ors	-519
ult	-520
so	-521
ical	-522
▁gl	-523
ict	-524
▁pass	-525
▁She	-526
▁being	-527
▁through	-528
ouse	-529
ps	-530
▁way	-531
▁app	-532
ener	-533
iff	-534
ren	-535
▁Ch	-536
▁wr	-537
▁ap	-538
led	-539
▁came	-540
▁might	-541
▁ent	-542
▁himself	-543
ving	-544
▁think	-545
ract	-546
▁life	-547
▁seem	-548
land	-549
ried	-550
▁form	-551
▁many	-552
oth	-553
▁bel	-554
ever	-555
▁come	-556
▁back	-557
▁found	-558
ves	-559
▁call	-560
▁ey	-561
te	-562
The	-563
▁ser	-564
▁here	-565
ase	-566
▁let	-567
▁sl	-568
▁thought	-569
▁shall	-570
▁same	-571
▁rep	-572
ked	-573
▁dist	-574
▁make	-575
orm	-576
▁fri	-577
ause	-578
less	-579
ject	-580
▁without	-581
igh	-582
les	-583
pect	-584
▁just	-585
----	-586
▁ear	-587
aw	-588
▁sub	-589
▁count	-590
ents	-591
▁This	-592
atter	-593
ock	-594
▁beg	-595
▁op	-596
ible	-597
▁em	-598
ix	-599
▁last	-600
the	-601
ople	-602
ged	-603
ished	-604
▁ke	-605
▁4	-606
ared	-607
ower	-608
▁rec	-609
▁They	-610
▁word	-611
▁end	-612
▁ret	-613
▁car	-614
ial	-615
ollow	-616
ang	-617
▁rel	-618
▁head	-619
ened	-620
sel	-621
omet	-622
▁place	-623
▁U	-624
▁still	-625
▁inf	-626
▁supp	-627
▁ac	-628
▁There	-629
ted	-630
▁people	-631
ertain	-632
▁wom	-633
▁while	-634
▁inst	-635
▁We	-636
▁appe	-637
▁away	-638
▁turn	-639
▁went	-640
▁right	-641
▁co	-642
▁nat	-643
▁diff	-644
▁get	-645
▁ord	-646
▁also	-647
▁har	-648
▁friend	-649
▁new	-650
ince	-651
▁tak	-652
▁*	-653
und	-654
▁sec	-655
▁tra	-656
▁cr	-657
▁far	-658
▁take	-659
▁follow	-660
▁As	-661
▁reg	-662
ks	-663
ates	-664
▁cour	-665
ently	-666
ined	-667
cess	-668
▁young	-669
hy	-670
▁pers	-671
ual	-672
▁arm	-673
ib	-674
uth	-675
ple	-676
ited	-677
▁years	-678
▁exp	-679
▁te	-680
▁set	-681
▁child	-682
not	-683
▁eyes	-684
du	-685
.,	-686
▁house	-687
▁giv	-688
▁sur	-689
TER	-690
mer	-691
▁three	-692
▁bo	-693
▁Eng	-694
ret	-695
▁poss	-696
▁though	-697
vers	-698
▁mar	-699
▁heart	-700
▁war	-701
ont	-702
▁put	-703
cept	-704
rib	-705
▁yet	-706
ope	-707
▁ev	-708
▁ever	-709
ither	-710
li	-711
oc	-712
ss	-713
▁another	-714
▁against	-715
▁gra	-716
▁left	-717
ular	-718
▁God	-719
▁somet	-720
▁occ	-721
HE	-722
▁conf	-723
▁gener	-724
ner	-725
▁night	-726
▁ass	-727
RE	-728
▁inc	-729
▁ext	-730
▁once	-731
ween	-732
▁tell	-733
ool	-734
▁ref	-735
▁act	-736
▁disc	-737
▁find	-738
▁light	-739
air	-740
▁5	-741
ows	-742
▁At	-743
ways	-744
ning	-745
▁few	-746
▁ple	-747
AL	-748
ON	-749
▁love	-750
get	-751
..	-752
ins	-753
▁nothing	-754
ph	-755
▁want	-756
▁each	-757
▁between	-758
▁world	-759
▁pur	-760
▁mind	-761
▁lar	-762
cy	-763
▁face	-764
▁unt	-765
▁chan	-766
▁near	-767
ived	-768
ody	-769
▁give	-770
ail	-771
rew	-772
ures	-773
its	-774
sw	-775
ale	-776
har	-777
ised	-778
ier	-779
osed	-780
gg	-781
▁kind	-782
ired	-783
▁adv	-784
▁saw	-785
▁took	-786
aut	-787
ts	-788
▁rest	-789
den	-790
erm	-791
ters	-792
▁When	-793
▁gu	-794
ffect	-795
▁water	-796
ting	-797
▁pu	-798
▁add	-799
▁father	-800
▁side	-801
ec	-802
▁always	-803
▁return	-804
▁happ	-805
00	-806
als	-807
▁name	-808
▁inter	-809
▁read	-810
▁called	-811
ief	-812
▁stre	-813
most	-814
▁His	-815
▁mom	-816
xt	-817
▁things	-818
thing	-819
rist	-820
▁You	-821
▁country	-822
▁If	-823
oot	-824
▁str	-825
▁certain	-826
ee	-827
att	-828
▁ins	-829
apt	-830
.”	-831
aught	-832
▁present	-833
▁whole	-834
vel	-835
aking	-836
▁sw	-837
ross	-838
▁among	-839
▁small	-840
ating	-841
▁mon	-842
▁don	-843
▁feel	-844
alk	-845
▁6	-846
aid	-847
ton	-848
▁An	-849
iness	-850
▁For	-851
▁On	-852
▁hands	-853
ention	-854
ched	-855
ten	-856
▁bre	-857
ute	-858
here	-859
▁nor	-860
selves	-861
▁soon	-862
▁bu	-863
▁To	-864
▁fell	-865
ason	-866
▁sent	-867
▁min	-868
▁seen	-869
▁home	-870
▁both	-871
ense	-872
▁Then	-873
▁lo	-874
▁having	-875
▁THE	-876
wards	-877
▁answ	-878
▁fam	-879
irl	-880
▁point	-881
uring	-882
ully	-883
ments	-884
▁dra	-885
▁half	-886
▁whom	-887
▁Jo	-888
▁cle	-889
▁Mrs	-890
▁cond	-891
▁Br	-892
▁done	-893
up	-894
▁care	-895
),	-896
▁hum	-897
ities	-898
▁land	-899
▁num	-900
▁moment	-901
▁art	-902
▁because	-903
aster	-904
▁thing	-905
eth	-906
▁fact	-907
med	-908
me	-909
▁sat	-910
ene	-911
▁seemed	-912
erest	-913
vern	-914
▁looked	-915
▁hour	-916
▁less	-917
ET	-918
▁inv	-919
row	-920
,--	-921
▁told	-922
IN	-923
▁power	-924
▁days	-925
▁room	-926
▁del	-927
sh	-928
▁however	-929
▁heard	-930
ern	-931
act	-932
outh	-933
▁large	-934
▁boy	-935
ub	-936
▁belie	-937
▁better	-938
.'	-939
▁cur	-940
pped	-941
▁dou	-942
▁So	-943
▁woman	-944
▁use	-945
▁best	-946
▁course	-947
▁matter	-948
oun	-949
▁asked	-950
▁i	-951
▁mother	-952
▁fore	-953
▁sil	-954
▁wind	-955
ield	-956
_.	-957
▁hard	-958
▁che	-959
▁Ar	-960
lish	-961
▁going	-962
▁stand	-963
az	-964
ately	-965
ution	-966
iet	-967
▁suff	-968
amp	-969
▁def	-970
ob	-971
▁pleas	-972
▁got	-973
▁tru	-974
ey	-975
▁tre	-976
▁Mar	-977
▁ste	-978
ably	-979
▁high	-980
▁interest	-981
.--	-982
ger	-983
▁Christ	-984
▁bro	-985
▁perf	-986
▁sim	-987
▁girl	-988
▁rece	-989
▁remain	-990
ured	-991
▁vis	-992
▁sk	-993
▁enough	-994
You	-995
▁knew	-996
▁Al	-997
ines	-998
elt	-999
▁taken	-1000
▁Ind	-1001
ird	-1002
ants	-1003
ling	-1004
▁almost	-1005
ider	-1006
▁det	-1007
▁17	-1008
▁four	-1009
▁el	-1010
▁given	-1011
ians	-1012
ug	-1013
▁es	-1014
▁does	-1015
owed	-1016
▁8	-1017
▁beaut	-1018
ison	-1019
hn	-1020
▁quite	-1021
▁col	-1022
osition	-1023
▁Lord	-1024
ustr	-1025
ote	-1026
ceed	-1027
▁words	-1028
▁contin	-1029
▁inde	-1030
▁dep	-1031
▁That	-1032
▁hor	-1033
▁adm	-1034
▁De	-1035
▁wa	-1036
▁sy	-1037
▁open	-1038
▁until	-1039
▁publ	-1040
aring	-1041
▁gave	-1042
oice	-1043
▁mo	-1044
▁person	-1045
haps	-1046
▁dire	-1047
▁brought	-1048
,”	-1049
urch	-1050
any	-1051
▁something	-1052
▁cent	-1053
▁serv	-1054
▁morn	-1055
AN	-1056
▁keep	-1057
▁death	-1058
ury	-1059
▁Wh	-1060
.]	-1061
▁mil	-1062
▁whose	-1063
▁law	-1064
▁Sp	-1065
▁fr	-1066
▁What	-1067
▁door	-1068
AR	-1069
▁Re	-1070
atch	-1071
ific	-1072
oud	-1073
ives	-1074
▁quest	-1075
▁opp	-1076
▁char	-1077
▁prop	-1078
▁differe	-1079
▁No	-1080
▁dec	-1081
arn	-1082
gin	-1083
men	-1084
ages	-1085
unt	-1086
ser	-1087
ident	-1088
▁Pr	-1089
▁bus	-1090
▁ele	-1091
▁since	-1092
▁others	-1093
▁themselves	-1094
▁pri	-1095
▁7	-1096
▁=	-1097
ets	-1098
▁hel	-1099
▁full	-1100
ually	-1101
▁morning	-1102
▁round	-1103
▁year	-1104
▁need	-1105
▁order	-1106
ches	-1107
▁ed	-1108
▁cor	-1109
▁plac	-1110
ank	-1111
▁Miss	-1112
undred	-1113
ism	-1114
ery	-1115
▁white	-1116
ided	-1117
EN	-1118
oney	-1119
▁cannot	-1120
▁John	-1121
▁charact	-1122
ued	-1123
▁bri	-1124
ides	-1125
iew	-1126
ung	-1127
▁fall	-1128
▁spir	-1129
▁feet	-1130
▁book	-1131
▁hon	-1132
irc	-1133
▁const	-1134
bt	-1135
ering	-1136
de	-1137
ressed	-1138
aim	-1139
oul	-1140
▁necess	-1141
ALL	-1142
▁Q	-1143
ached	-1144
▁turned	-1145
of	-1146
▁prom	-1147
▁rather	-1148
▁mean	-1149
▁pol	-1150
to	-1151
▁fin	-1152
▁hundred	-1153
enty	-1154
▁ill	-1155
▁poor	-1156
oke	-1157
▁est	-1158
▁used	-1159
ken	-1160
▁next	-1161
▁sun	-1162
nce	-1163
fully	-1164
gether	-1165
▁together	-1166
▁real	-1167
,'	-1168
▁case	-1169
▁king	-1170
ative	-1171
iting	-1172
▁dark	-1173
used	-1174
▁Be	-1175
▁subject	-1176
▁16	-1177
▁Un	-1178
▁till	-1179
▁began	-1180
It	-1181
▁underst	-1182
ude	-1183
▁above	-1184
▁ide	-1185
REE	-1186
OR	-1187
ham	-1188
▁felt	-1189
▁aff	-1190
mon	-1191
ETTER	-1192
▁fire	-1193
▁strong	-1194
▁gent	-1195
▁sure	-1196
▁LETTER	-1197
ances	-1198
hil	-1199
empt	-1200
▁often	-1201
▁English	-1202
▁thus	-1203
▁known	-1204
day	-1205
▁true	-1206
ient	-1207
ash	-1208
range	-1209
pr	-1210
▁myself	-1211
▁met	-1212
{~	-1213
~}	-1214
▁pain	-1215
ah	-1216
ES	-1217
▁consider	-1218
ister	-1219
▁says	-1220
▁play	-1221
▁King	-1222
▁swe	-1223
ott	-1224
▁All	-1225
▁exc	-1226
▁	-1227
e	-1228
t	-1229
a	-1230
o	-1231
n	-1232
i	-1233
s	-1234
h	-1235
r	-1236
d	-1237
l	-1238
u	-1239
c	-1240
m	-1241
f	-1242
w	-1243
,	-1244
g	-1245
y	-1246
p	-1247
b	-1248
.	-1249
v	-1250
k	-1251
I	-1252
-	-1253
"	-1254
T	-1255
A	-1256
S	-1257
'	-1258
_	-1259
E	-1260
H	-1261
M	-1262
;	-1263
C	-1264
x	-1265
B	-1266
L	-1267
1	-1268
R	-1269
W	-1270
N	-1271
P	-1272
O	-1273
D	-1274
G	-1275
q	-1276
F	-1277
j	-1278
2	-1279
?	-1280
0	-1281
!	-1282
3	-1283
:	-1284
z	-1285
8	-1286
J	-1287
4	-1288
5	-1289
Y	-1290
6	-1291
7	-1292
)	-1293
9	-1294
(	-1295
]	-1296
[	-1297
K	-1298
V	-1299
U	-1300
’	-1301
“	-1302
”	-1303
|	-1304
=	-1305
*	-1306
~	-1307
X	-1308
—	-1309
}	-1310
{	-1311
Q	-1312
+	-1313
Z	-1314
‘	-1315
é	-1316
/	-1317
&	-1318
>	-1319
─	-1320
<	-1321
│	-1322
æ	-1323
$	-1324
á	-1325
#	-1326
ν	-1327
`	-1328
α	-1329
τ	-1330
ο	-1331
^	-1332
è	-1333
ε	-1334
·	-1335
ι	-1336
à	-1337
ς	-1338
í	-1339
ρ	-1340
–	-1341
ā	-1342
σ	-1343
⁄	-1344
μ	-1345
π	-1346
κ	-1347
â	-1348
λ	-1349
ä	-1350
ó	-1351
ö	-1352
§	-1353
ê	-1354
ī	-1355
́	-1356
ē	-1357
£	-1358
ō	-1359
ü	-1360
―	-1361
œ	-1362
δ	-1363
ú	-1364
Æ	-1365
°	-1366
═	-1367
\	-1368
ñ	-1369
ç	-1370
υ	-1371
ί	-1372
ô	-1373
ð	-1374
ω	-1375
γ	-1376
þ	-1377
η	-1378
έ	-1379
θ	-1380
‭	-1381
ό	-1382
ά	-1383
ἐ	-1384
¶	-1385
ὶ	-1386
É	-1387
ū	-1388
χ	-1389
ẻ	-1390
ἀ	-1391
%	-1392
ë	-1393
Ï	-1394
φ	-1395
ï	-1396
»	-1397
î	-1398
ὸ	-1399
ύ	-1400
′	-1401
ῶ	-1402
@	-1403
„	-1404
ῖ	-1405
┼	-1406
«	-1407
û	-1408
×	-1409
ù	-1410
ῦ	-1411
ò	-1412
ὰ	-1413
	-1414
ὐ	-1415
β	-1416
ή	-1417
ὲ	-1418
	-1419
ǣ	-1420
	-1421
©	-1422
ὴ	-1423
ῆ	-1424
ξ	-1425
Á	-1426
‐	-1427
ἰ	-1428
ì	-1429
ἔ	-1430
Ð	-1431
†	-1432
ĭ	-1433
ă	-1434
ĕ	-1435
ώ	-1436
ἡ	-1437
ἄ	-1438
✿	-1439
ὁ	-1440
Œ	-1441
┴	-1442
ζ	-1443
┬	-1444
ὑ	-1445
ʼ	-1446
ã	-1447
	-1448
õ	-1449
Π	-1450
Σ	-1451
ȝ	-1452
ȳ	-1453
Ἀ	-1454
ŭ	-1455
ὺ	-1456
Κ	-1457
ἱ	-1458
ě	-1459
Α	-1460
š	-1461
ῷ	-1462
ὅ	-1463
Ο	-1464
Τ	-1465
ψ	-1466
¬	-1467
Í	-1468
ß	-1469
ř	-1470
Ü	-1471
ᾶ	-1472
ῳ	-1473
Ε	-1474
•	-1475
י	-1476
ý	-1477
ŏ	-1478
ḍ	-1479
̆	-1480
Ι	-1481
Δ	-1482
̓	-1483
¤	-1484
Ν	-1485
	-1486
ἑ	-1487
♠	-1488
Ā	-1489
ˈ	-1490
ἴ	-1491
Â	-1492
̍	-1493
ו	-1494
̄	-1495
Μ	-1496
ὀ	-1497
Þ	-1498
ῇ	-1499
ἶ	-1500
č	-1501
̃	-1502
♂	-1503
È	-1504
⏑	-1505
À	-1506
♣	-1507
ה	-1508
Λ	-1509
ẽ	-1510
ב	-1511
±	-1512
‒	-1513
ž	-1514
̧	-1515
├	-1516
ə	-1517
¢	-1518
┤	-1519
Ἐ	-1520
Ó	-1521
ę	-1522
ˀ	-1523
Ö	-1524
ḥ	-1525
ר	-1526
ṭ	-1527
ῥ	-1528
א	-1529
ע	-1530
ῃ	-1531
ὔ	-1532
╤	-1533
ὡ	-1534
ל	-1535
Θ	-1536
ὖ	-1537
Ç	-1538
ת	-1539
♀	-1540
å	-1541
ὄ	-1542
ἁ	-1543
ḳ	-1544
ẹ	-1545
ἢ	-1546
ʹ	-1547
ש	-1548
ד	-1549
ἕ	-1550
⸺	-1551
÷	-1552
ὕ	-1553
‡	-1554
♦	-1555
מ	-1556
ּ	-1557
Ø	-1558
⁂	-1559
Υ	-1560
ָ	-1561
Χ	-1562
ὼ	-1563
¿	-1564
Ρ	-1565
ǫ	-1566
℥	-1567
Φ	-1568
ȧ	-1569
━	-1570
ְ	-1571
ᾳ	-1572
♡	-1573
ἅ	-1574
┌	-1575
✱	-1576
Ñ	-1577
ʒ	-1578
⁊	-1579
Β	-1580
ṣ	-1581
ἵ	-1582
♢	-1583
Η	-1584
̈	-1585
ἂ	-1586
ַ	-1587
נ	-1588
Γ	-1589
ǝ	-1590
ם	-1591
ἦ	-1592
℞	-1593
└	-1594
ὥ	-1595
Î	-1596
Ī	-1597
ἠ	-1598
♥	-1599
ا	-1600
√	-1601
	-1602
┐	-1603
○	-1604
ÿ	-1605
ŋ	-1606
ἤ	-1607
ꝓ	-1608
Ἰ	-1609
Ä	-1610
ṇ	-1611
⛀	-1612
−	-1613
⛂	-1614
Ω	-1615
ח	-1616
ů	-1617
ἷ	-1618
	-1619
┘	-1620
ִ	-1621
Ô	-1622
Ἄ	-1623
✠	-1624
ć	-1625
¡	-1626
ọ	-1627
Ḥ	-1628
Ḳ	-1629
ꝭ	-1630
ʿ	-1631
Ê	-1632
¦	-1633
Ú	-1634
כ	-1635
〈	-1636
〉	-1637
‹	-1638
Ἑ	-1639
ل	-1640
ȼ	-1641
›	-1642
‛	-1643
ː	-1644
ɔ	-1645
ἥ	-1646
Ō	-1647
פ	-1648
ֶ	-1649
ὃ	-1650
̇	-1651
ק	-1652
ś	-1653
║	-1654
‬	-1655
ן	-1656
ʇ	-1657
Û	-1658
ὗ	-1659
­	-1660
Ē	-1661
͠	-1662
◊	-1663
Ë	-1664
☞	-1665
→	-1666
↷	-1667
ֹ	-1668
‚	-1669
ὧ	-1670
ֵ	-1671
ס	-1672
ˌ	-1673
Ἡ	-1674
ṛ	-1675
ꝥ	-1676
Ý	-1677
Ζ	-1678
ֽ	-1679
ׁ	-1680
∴	-1681
ġ	-1682
Ὀ	-1683
ג	-1684
Ἔ	-1685
ϊ	-1686
⨀	-1687
ǽ	-1688
Š	-1689
צ	-1690
е	-1691
ֲ	-1692
̋	-1693
Ū	-1694
ὠ	-1695
Ὁ	-1696
〃	-1697
а	-1698
Ṭ	-1699
Ῥ	-1700
ي	-1701
╪	-1702
р	-1703
ħ	-1704
و	-1705
ʃ	-1706
ᾷ	-1707
ر	-1708
̀	-1709
ΐ	-1710
ḗ	-1711
̅	-1712
ũ	-1713
ῤ	-1714
¥	-1715
о	-1716
Ṣ	-1717
⧸	-1718
م	-1719
ᾰ	-1720
ὦ	-1721
‮	-1722
Ἕ	-1723
●	-1724
ب	-1725
∕	-1726
ʞ	-1727
	-1728
ἧ	-1729
ɑ	-1730
♭	-1731
ن	-1732
ͤ	-1733
╧	-1734
ך	-1735
Ἱ	-1736
ז	-1737
ἣ	-1738
ἃ	-1739
	-1740
Ὑ	-1741
╱	-1742
□	-1743
	-1744
Ã	-1745
ᴗ	-1746
ט	-1747
╲	-1748
ų	-1749
ʺ	-1750
ъ	-1751
Ḍ	-1752
子	-1753
Å	-1754
℔	-1755
‰	-1756
♯	-1757
ὤ	-1758
ῴ	-1759
Ξ	-1760
Ὅ	-1761
®	-1762
‪	-1763
ṅ	-1764
⏖	-1765
ῡ	-1766
Ẻ	-1767
ṓ	-1768
	-1769
ه	-1770
ň	-1771
█	-1772
▨	-1773
Ψ	-1774
℣	-1775
н	-1776
ť	-1777
ẓ	-1778
⸻	-1779
د	-1780
ỹ	-1781
ت	-1782
■	-1783
ῑ	-1784
ع	-1785
̱	-1786
ƕ	-1787
س	-1788
Ἴ	-1789
ˉ	-1790
ø	-1791
ᾧ	-1792
ɳ	-1793
☉	-1794
̨	-1795
͡	-1796
ĩ	-1797
┃	-1798
Ò	-1799
ʌ	-1800
͂	-1801
ἳ	-1802
̤	-1803
‖	-1804
Ʒ	-1805
▶	-1806
ὢ	-1807
ȯ	-1808
֖	-1809
Ↄ	-1810
◀	-1811
Ꝝ	-1812
в	-1813
ἓ	-1814
ᾱ	-1815
Ĭ	-1816
ď	-1817
̝	-1818
Ἥ	-1819
Ȝ	-1820
ϛ	-1821
Ἁ	-1822
Č	-1823
ʾ	-1824
ق	-1825
ح	-1826
ạ	-1827
͐	-1828
Ἠ	-1829
⋅	-1830
֥	-1831
字	-1832
ł	-1833
и	-1834
ἆ	-1835
♈	-1836
с	-1837
т	-1838
у	-1839
ῐ	-1840
之	-1841
̳	-1842
ͭ	-1843
ῄ	-1844
ῠ	-1845
♄	-1846
־	-1847
ṉ	-1848
П	-1849
д	-1850
֣	-1851
	-1852
ʻ	-1853
ف	-1854
̲	-1855
к	-1856
	-1857
ḷ	-1858
ᵹ	-1859
♃	-1860
∞	-1861
ὓ	-1862
Ὠ	-1863
⏔	-1864
卐	-1865
Õ	-1866
Ś	-1867
ة	-1868
ḣ	-1869
ᾗ	-1870
╕	-1871
Ă	-1872
☿	-1873
ͬ	-1874
ĝ	-1875
ϋ	-1876
б	-1877
ك	-1878
Ὄ	-1879
л	-1880
̑	-1881
Ի	-1882
ֻ	-1883
₵	-1884
Ù	-1885
г	-1886
ᾖ	-1887
╒	-1888
▢	-1889
。	-1890
ꞃ	-1891
ẖ	-1892
人	-1893
Ž	-1894
◡	-1895
ᶙ	-1896
ǵ	-1897
ج	-1898
᛬	-1899
◯	-1900
國	-1901
͞	-1902
Ἅ	-1903
ↄ	-1904
С	-1905
⸗	-1906
ᾴ	-1907
ĉ	-1908
ᾠ	-1909
♊	-1910
∂	-1911
十	-1912
ċ	-1913
̂	-1914
ף	-1915
ụ	-1916
ŷ	-1917
⚹	-1918
Ì	-1919
∷	-1920
̭	-1921
Ȼ	-1922
☛	-1923
☽	-1924
大	-1925
ỳ	-1926
✓	-1927
ı	-1928
͜	-1929
☌	-1930
ė	-1931
ş	-1932
ׂ	-1933
ᾤ	-1934
℈	-1935
ꝯ	-1936
ꝺ	-1937
ὂ	-1938
ŝ	-1939
й	-1940
♎	-1941
⌃	-1942
	-1943
֔	-1944
ᵬ	-1945
ṳ	-1946
⎜	-1947
ش	-1948
ط	-1949
ᛁ	-1950
ị	-1951
≡	-1952
	-1953
ɛ	-1954
п	-1955
ḏ	-1956
♏	-1957
❦	-1958
ƿ	-1959
֑	-1960
四	-1961
	-1962
Ὕ	-1963
◆	-1964
英	-1965
̯	-1966
ֱ	-1967
ّ	-1968
Ὡ	-1969
̸	-1970
ϝ	-1971
ץ	-1972
ز	-1973
⏗	-1974
☍	-1975
Ĕ	-1976
М	-1977
中	-1978
Ř	-1979
Ǫ	-1980
̔	-1981
̥	-1982
ص	-1983
َ	-1984
ḋ	-1985
公	-1986
書	-1987
有	-1988
	-1989
ΰ	-1990
я	-1991
⊙	-1992
⋀	-1993
♑	-1994
♟	-1995
家	-1996
خ	-1997
ὣ	-1998
♓	-1999
ў	-2000
ᚱ	-2001
ḃ	-2002
∫	-2003
一	-2004
་	-2005
ᚢ	-2006
Ỹ	-2007
‿	-2008
♐	-2009
Ŭ	-2010
ᾔ	-2011
❧	-2012
二	-2013
ꞅ	-2014
🂭	-2015
̣	-2016
ᛆ	-2017
ᴐ	-2018
ṫ	-2019
⎟	-2020
♙	-2021
̶	-2022
Ṇ	-2023
Ὦ	-2024
♌	-2025
ꞇ	-2026
	-2027
Ć	-2028
̵	-2029
Д	-2030
♉	-2031
孔	-2032
者	-2033
Ἤ	-2034
Ἦ	-2035
⎪	-2036
△	-2037
三	-2038
ȣ	-2039
♋	-2040
經	-2041
з	-2042
і	-2043
ى	-2044
⁠	-2045
語	-2046
🂧	-2047
🂫	-2048
🂾	-2049
ń	-2050
ż	-2051
ᾄ	-2052
⊕	-2053
地	-2054
м	-2055
ἲ	-2056
Ὥ	-2057
⎭	-2058
⏓	-2059
┯	-2060
♒	-2061
記	-2062
🂡	-2063
🂮	-2064
🂷	-2065
🂻	-2066
🃞	-2067
ث	-2068
ذ	-2069
ṁ	-2070
⅌	-2071
⎫	-2072
♪	-2073
文	-2074
🃑	-2075
🃘	-2076
	-2077
Н	-2078
ḵ	-2079
Ṛ	-2080
⌅	-2081
☊	-2082
♍	-2083
🃋	-2084
غ	-2085
不	-2086
🃔	-2087
🃝	-2088
ɒ	-2089
͝	-2090
Б	-2091
є	-2092
ᛌ	-2093
Ἆ	-2094
☜	-2095
ꝟ	-2096
🃗	-2097
🃛	-2098
đ	-2099
ź	-2100
Έ	-2101
В	-2102
ե	-2103
ֳ	-2104
ׄ	-2105
ᚿ	-2106
ṯ	-2107
ῒ	-2108
⎬	-2109
⚲	-2110
⭘	-2111
五	-2112
ꝼ	-2113
🃇	-2114
Ę	-2115
Ġ	-2116
Ŋ	-2117
ʽ	-2118
̊	-2119
Ẓ	-2120
∛	-2121
☧	-2122
♅	-2123
山	-2124
庸	-2125
說	-2126
🂨	-2127
🃄	-2128
ɩ	-2129
Ά	-2130
А	-2131
Ԁ	-2132
ṵ	-2133
⎧	-2134
⎩	-2135
上	-2136
何	-2137
卷	-2138
所	-2139
爲	-2140
🂱	-2141
Ĉ	-2142
ɫ	-2143
ч	-2144
ն	-2145
ᚴ	-2146
ἒ	-2147
▂	-2148
其	-2149
禮	-2150
🂤	-2151
🃈	-2152
🃍	-2153
🃎	-2154
🃖	-2155
Ɔ	-2156
ր	-2157
ᚦ	-2158
ḁ	-2159
ṷ	-2160
Ὃ	-2161
╫	-2162
♩	-2163
傳	-2164
🂸	-2165
🂽	-2166
🃆	-2167
🃙	-2168
ƒ	-2169
ˆ	-2170
Ͱ	-2171
К	-2172
ь	-2173
ُ	-2174
ᵭ	-2175
ᾐ	-2176
天	-2177
帝	-2178
🂴	-2179
👉	-2180
Г	-2181
Ж	-2182
ѣ	-2183
ᛚ	-2184
ṡ	-2185
Ἵ	-2186
⎛	-2187
⎝	-2188
╮	-2189
▪	-2190
♚	-2191
下	-2192
世	-2193
也	-2194
六	-2195
年	-2196
🂺	-2197
🃁	-2198
Ŏ	-2199
ŵ	-2200
̩	-2201
Ϙ	-2202
֤	-2203
ṃ	-2204
ὒ	-2205
⊏	-2206
明	-2207
論	-2208
🂩	-2209
🂹	-2210
🃊	-2211
🃓	-2212
🖙	-2213
	-2214
ы	-2215
֙	-2216
״	-2217
Ἃ	-2218
‸	-2219
♜	-2220
♞	-2221
以	-2222
在	-2223
此	-2224
氏	-2225
百	-2226
皇	-2227
聖	-2228
ꝫ	-2229
🃅	-2230
ȩ	-2231
ո	-2232
ض	-2233
ᚠ	-2234
ᛅ	-2235
ᛐ	-2236
ḕ	-2237
ẏ	-2238
‧	-2239
‫	-2240
∓	-2241
⏕	-2242
╭	-2243
南	-2244
可	-2245
考	-2246
🂪	-2247
🃚	-2248
ą	-2249
ɧ	-2250
Ϝ	-2251
Ͻ	-2252
Е	-2253
֨	-2254
֭	-2255
ֺ	-2256
ḡ	-2257
⎨	-2258
♝	-2259
⸫	-2260
且	-2261
事	-2262
史	-2263
成	-2264
方	-2265
王	-2266
相	-2267
縣	-2268
而	-2269
行	-2270
遠	-2271
集	-2272
🂥	-2273
🂶	-2274
🃉	-2275
	-2276
ɪ	-2277
ա	-2278
ِ	-2279
ک	-2280
ܐ	-2281
↑	-2282
≈	-2283
╯	-2284
⚀	-2285
商	-2286
多	-2287
安	-2288
左	-2289
師	-2290
平	-2291
正	-2292
民	-2293
河	-2294
清	-2295
石	-2296
華	-2297
🂢	-2298
ğ	-2299
į	-2300
ц	-2301
գ	-2302
ᚮ	-2303
ᛘ	-2304
Ἓ	-2305
⁞	-2306
⊐	-2307
⎞	-2308
⎠	-2309
╦	-2310
►	-2311
☋	-2312
⚁	-2313
仲	-2314
卍	-2315
太	-2316
府	-2317
易	-2318
水	-2319
海	-2320
顏	-2321
🂦	-2322
🃃	-2323
Ě	-2324
Ż	-2325
Ǝ	-2326
Ǣ	-2327
ɣ	-2328
̦	-2329
̷	-2330
ء	-2331
٘	-2332
ܝ	-2333
Ṽ	-2334
Ἢ	-2335
╔	-2336
╗	-2337
⚂	-2338
七	-2339
周	-2340
學	-2341
寺	-2342
本	-2343
橋	-2344
篇	-2345
與	-2346
🂣	-2347
🃒	-2348
ɥ	-2349
̴	-2350
ͣ	-2351
ͨ	-2352
ͪ	-2353
О	-2354
ф	-2355
х	-2356
ի	-2357
ւ	-2358
֜	-2359
ܚ	-2360
Ὧ	-2361
ᾀ	-2362
↓	-2363
╰	-2364
⚃	-2365
⠄	-2366
ⲏ	-2367
⸪	-2368
但	-2369
來	-2370
八	-2371
叔	-2372
古	-2373
司	-2374
各	-2375
得	-2376
手	-2377
日	-2378
殿	-2379
無	-2380
西	-2381
解	-2382
通	-2383
馬	-2384
ɱ	-2385
ʍ	-2386
Ή	-2387
Ό	-2388
Л	-2389
Р	-2390
ш	-2391
ܳ	-2392
ག	-2393
Ἣ	-2394
ↆ	-2395
∠	-2396
∩	-2397
⌠	-2398
⌡	-2399
╢	-2400
☚	-2401
✝	-2402
✩	-2403
ⲓ	-2404
ⲙ	-2405
Ⲭ	-2406
、	-2407
九	-2408
于	-2409
佛	-2410
作	-2411
光	-2412
則	-2413
又	-2414
名	-2415
塲	-2416
夫	-2417
如	-2418
常	-2419
思	-2420
是	-2421
江	-2422
父	-2423
生	-2424
皆	-2425
等	-2426
續	-2427
證	-2428
道	-2429
非	-2430
魯	-2431
Ɩ	-2432
ǐ	-2433
ǧ	-2434
Ȧ	-2435
ͩ	-2436
Ѣ	-2437
֗	-2438
׃	-2439
׳	-2440
أ	-2441
ོ	-2442
ᚭ	-2443
ḙ	-2444
←	-2445
∵	-2446
⊼	-2447
╘	-2448
╟	-2449
╡	-2450
╸	-2451
☾	-2452
♔	-2453
♖	-2454
♗	-2455
♛	-2456
⚄	-2457
伯	-2458
先	-2459
內	-2460
千	-2461
吏	-2462
向	-2463
孝	-2464
季	-2465
志	-2466
或	-2467
時	-2468
為	-2469
略	-2470
白	-2471
矣	-2472
義	-2473
船	-2474
萬	-2475
開	-2476
陳	-2477
餘	-2478
高	-2479
🂲	-2480
	-2481
	-2482
ĵ	-2483
ő	-2484
ǁ	-2485
ǖ	-2486
ǭ	-2487
ͦ	-2488
Ч	-2489
ҫ	-2490
֛	-2491
ظ	-2492
ٌ	-2493
ْ	-2494
ܠ	-2495
ܡ	-2496
ࣨ	-2497
र	-2498
व	-2499
ᚨ	-2500
Ṡ	-2501
ẅ	-2502
ᾅ	-2503
ᾑ	-2504
‟	-2505
⇌	-2506
⊂	-2507
┰	-2508
┸	-2509
╛	-2510
╨	-2511
♘	-2512
♮	-2513
⛃	-2514
Ɑ	-2515
乎	-2516
口	-2517
土	-2518
外	-2519
州	-2520
心	-2521
意	-2522
新	-2523
曰	-2524
李	-2525
武	-2526
流	-2527
漢	-2528
田	-2529
福	-2530
秦	-2531
至	-2532
致	-2533
表	-2534
被	-2535
要	-2536
註	-2537
長	-2538
陽	-2539
龍	-2540
ǎ	-2541
ǔ	-2542
ɭ	-2543
ɶ	-2544
ˑ	-2545
͒	-2546
И	-2547
э	-2548
چ	-2549
ܘ	-2550
ܣ	-2551
्	-2552
ད	-2553
བ	-2554
ུ	-2555
ᛋ	-2556
ᴜ	-2557
Ἶ	-2558
Ὣ	-2559
⁎	-2560
ↀ	-2561
∝	-2562
∟	-2563
⋃	-2564
⏒	-2565
╞	-2566
◉	-2567
☼	-2568
⚅	-2569
⛁	-2570
✲	-2571
⟙	-2572
代	-2573
冉	-2574
出	-2575
即	-2576
哀	-2577
士	-2578
夏	-2579
孫	-2580
定	-2581
尼	-2582
晏	-2583
歷	-2584
永	-2585
物	-2586
獻	-2587
理	-2588
知	-2589
神	-2590
菩	-2591
薩	-2592
見	-2593
諸	-2594
象	-2595
都	-2596
音	-2597
	-2598
	-2599
	-2600
ţ	-2601
ű	-2602
ɯ	-2603
ϙ	-2604
Є	-2605
֫	-2606
ی	-2607
ܕ	-2608
ས	-2609
ṗ	-2610
ṽ	-2611
ᾆ	-2612
ᾕ	-2613
ῂ	-2614
Ὶ	-2615
ῢ	-2616
ῼ	-2617
⁝	-2618
∥	-2619
∶	-2620
┓	-2621
╥	-2622
▕	-2623
◖	-2624
☩	-2625
♕	-2626
✴	-2627
乘	-2628
仁	-2629
侯	-2630
儒	-2631
列	-2632
因	-2633
圖	-2634
害	-2635
小	-2636
尚	-2637
川	-2638
張	-2639
戴	-2640
拓	-2641
於	-2642
春	-2643
曹	-2644
曾	-2645
治	-2646
法	-2647
由	-2648
番	-2649
異	-2650
祖	-2651
秋	-2652
粵	-2653
若	-2654
言	-2655
詩	-2656
貿	-2657
賢	-2658
達	-2659
釋	-2660
里	-2661
鋪	-2662
關	-2663
阿	-2664
陀	-2665
韋	-2666
黑	-2667
點	-2668
🂳	-2669
🃕	-2670
Ĝ	-2671
ļ	-2672
Ŷ	-2673
Ÿ	-2674
ƚ	-2675
ȫ	-2676
Ʌ	-2677
ͧ	-2678
З	-2679
Ъ	-2680
ј	-2681
Ԃ	-2682
Ե	-2683
կ	-2684
ղ	-2685
վ	-2686
؟	-2687
ܓ	-2688
ܗ	-2689
ܢ	-2690
ܬ	-2691
ब	-2692
ང	-2693
ར	-2694
ᚼ	-2695
ᛂ	-2696
ᛍ	-2697
ᴊ	-2698
ḟ	-2699
⌒	-2700
⎮	-2701
╳	-2702
☘	-2703
✶	-2704
⬜	-2705
Ⲉ	-2706
・	-2707
亞	-2708
亦	-2709
伊	-2710
侍	-2711
力	-2712
加	-2713
博	-2714
原	-2715
友	-2716
合	-2717
嘉	-2718
坪	-2719
奈	-2720
孟	-2721
宜	-2722
客	-2723
宣	-2724
宰	-2725
嶺	-2726
已	-2727
彼	-2728
往	-2729
德	-2730
恩	-2731
教	-2732
普	-2733
月	-2734
服	-2735
木	-2736
梁	-2737
樂	-2738
欺	-2739
母	-2740
洋	-2741
渡	-2742
然	-2743
申	-2744
界	-2745
發	-2746
第	-2747
自	-2748
色	-2749
花	-2750
茲	-2751
街	-2752
觀	-2753
護	-2754
財	-2755
鄭	-2756
重	-2757
金	-2758
銀	-2759
魏	-2760
ꝉ	-2761
ꝑ	-2762
Ꝭ	-2763
🃂	-2764
İ	-2765
Ŝ	-2766
Ũ	-2767
ǟ	-2768
Ȳ	-2769
ɹ	-2770
̉	-2771
Ί	-2772
Т	-2773
Х	-2774
Я	-2775
ж	-2776
ю	-2777
җ	-2778
ծ	-2779
ք	-2780
֩	-2781
֮	-2782
پ	-2783
ܒ	-2784
ܙ	-2785
ܪ	-2786
མ	-2787
ལ	-2788
ᚾ	-2789
ᛏ	-2790
᛫	-2791
Ḡ	-2792
Ḣ	-2793
ḯ	-2794
Ḷ	-2795
ẇ	-2796
Ẽ	-2797
ἇ	-2798
ῗ	-2799
‵	-2800
₰	-2801
⊔	-2802
⋯	-2803
⏌	-2804
┣	-2805
╂	-2806
╚	-2807
╝	-2808
╬	-2809
▼	-2810
▽	-2811
◇	-2812
♁	-2813
✕	-2814
⧫	-2815
⪌	-2816
⸸	-2817
主	-2818
井	-2819
享	-2820
任	-2821
伋	-2822
元	-2823
全	-2824
典	-2825
凌	-2826
分	-2827
利	-2828
到	-2829
前	-2830
印	-2831
參	-2832
及	-2833
君	-2834
命	-2835
和	-2836
問	-2837
嚴	-2838
埠	-2839
好	-2840
守	-2841
官	-2842
尊	-2843
少	-2844
島	-2845
工	-2846
帶	-2847
序	-2848
彌	-2849
彙	-2850
徒	-2851
從	-2852
復	-2853
必	-2854
應	-2855
撰	-2856
敢	-2857
敬	-2858
旗	-2859
既	-2860
昌	-2861
晉	-2862
望	-2863
期	-2864
未	-2865
朱	-2866
板	-2867
栖	-2868
次	-2869
步	-2870
毛	-2871
照	-2872
牛	-2873
特	-2874
產	-2875
甲	-2876
疏	-2877
皙	-2878
祀	-2879
章	-2880
籍	-2881
纂	-2882
羅	-2883
美	-2884
羔	-2885
老	-2886
聲	-2887
能	-2888
藝	-2889
處	-2890
衙	-2891
襄	-2892
親	-2893
訓	-2894
貴	-2895
賤	-2896
路	-2897
身	-2898
這	-2899
進	-2900
邦	-2901
門	-2902
雅	-2903
雲	-2904
頂	-2905
順	-2906
風	-2907
體	-2908
黃	-2909
🂵	-2910
Ş	-2911
Ŵ	-2912
ƥ	-2913
ư	-2914
Ǖ	-2915
Ƿ	-2916
ț	-2917
ɲ	-2918
͆	-2919
͕	-2920
͵	-2921
Ύ	-2922
Ώ	-2923
Ϛ	-2924
϶	-2925
Ϻ	-2926
Ђ	-2927
У	-2928
Ф	-2929
Ш	-2930
Ь	-2931
щ	-2932
ё	-2933
Ԋ	-2934
Փ	-2935
ց	-2936
֝	-2937
֞	-2938
֠	-2939
֧	-2940
ׇ	-2941
ئ	-2942
ܩ	-2943
ܫ	-2944
न	-2945
ന	-2946
ཉ	-2947
ན	-2948
པ	-2949
འ	-2950
ི	-2951
ེ	-2952
ྲ	-2953
ᒥ	-2954
ᕼ	-2955
ᖤ	-2956
ᛟ	-2957
ᷛ	-2958
Ḋ	-2959
Ḏ	-2960
Ṅ	-2961
ṙ	-2962
ẍ	-2963
Ἂ	-2964
Ὢ	-2965
Ὤ	-2966
ᾨ	-2967
ᾲ	-2968
⁐	-2969
∘	-2970
∾	-2971
⊃	-2972
⊖	-2973
⌓	-2974
⎵	-2975
⏊	-2976
⏘	-2977
⏞	-2978
┏	-2979
┻	-2980
▌	-2981
▎	-2982
▐	-2983
◍	-2984
◠	-2985
★	-2986
☥	-2987
❀	-2988
❌	-2989
⦿	-2990
Ⲁ	-2991
Ⲃ	-2992
Ⲛ	-2993
Ⲡ	-2994
ア	-2995
ッ	-2996
乃	-2997
亢	-2998
交	-2999
令	-3000
似	-3001
使	-3002
例	-3003
係	-3004
倘	-3005
做	-3006
入	-3007
兩	-3008
兵	-3009
兼	-3010
准	-3011
刷	-3012
刻	-3013
勒	-3014
勾	-3015
北	-3016
卜	-3017
卿	-3018
厚	-3019
受	-3020
叢	-3021
句	-3022
右	-3023
同	-3024
吳	-3025
吾	-3026
咸	-3027
品	-3028
哉	-3029
唐	-3030
善	-3031
城	-3032
堂	-3033
增	-3034
墨	-3035
夾	-3036
奇	-3037
奉	-3038
女	-3039
奸	-3040
妄	-3041
孺	-3042
宋	-3043
容	-3044
將	-3045
尉	-3046
屢	-3047
屬	-3048
岷	-3049
峨	-3050
市	-3051
廟	-3052
廣	-3053
引	-3054
律	-3055
御	-3056
忌	-3057
情	-3058
想	-3059
慰	-3060
懷	-3061
打	-3062
摩	-3063
放	-3064
故	-3065
敵	-3066
斯	-3067
旨	-3068
昭	-3069
晢	-3070
景	-3071
智	-3072
朝	-3073
村	-3074
東	-3075
林	-3076
極	-3077
榮	-3078
横	-3079
樹	-3080
歸	-3081
沙	-3082
泰	-3083
溪	-3084
漆	-3085
濱	-3086
犬	-3087
玄	-3088
玉	-3089
班	-3090
瓦	-3091
男	-3092
町	-3093
疆	-3094
登	-3095
目	-3096
省	-3097
眉	-3098
眾	-3099
睦	-3100
祿	-3101
端	-3102
紀	-3103
索	-3104
終	-3105
統	-3106
總	-3107
羊	-3108
耕	-3109
良	-3110
蒧	-3111
蒲	-3112
藏	-3113
虛	-3114
衛	-3115
補	-3116
許	-3117
該	-3118
謂	-3119
講	-3120
豈	-3121
賜	-3122
赤	-3123
越	-3124
車	-3125
輿	-3126
近	-3127
遇	-3128
鄉	-3129
錄	-3130
鎮	-3131
間	-3132
阻	-3133
除	-3134
陸	-3135
雕	-3136
雖	-3137
難	-3138
青	-3139
頭	-3140
飛	-3141
饋	-3142
魚	-3143
鳴	-3144
黨	-3145
齊	-3146
Ꞇ	-3147
	-3148
	-3149
Ĥ	-3150
Ĩ	-3151
Ł	-3152
ŧ	-3153
ǡ	-3154
ȗ	-3155
ȱ	-3156
ʊ	-3157
ʠ	-3158
˔	-3159
˕	-3160
̠	-3161
ͥ	-3162
Ϟ	-3163
ϡ	-3164
ϫ	-3165
І	-3166
Й	-3167
Щ	-3168
Ы	-3169
Э	-3170
ђ	-3171
ћ	-3172
Ը	-3173
լ	-3174
հ	-3175
մ	-3176
պ	-3177
տ	-3178
փ	-3179
֒	-3180
֕	-3181
֘	-3182
֡	-3183
֯	-3184
ً	-3185
ٱ	-3186
ڙ	-3187
گ	-3188
ܛ	-3189
ܤ	-3190
ܦ	-3191
ܰ	-3192
स	-3193
ा	-3194
ཁ	-3195
ཆ	-3196
ཇ	-3197
ཧ	-3198
ྟ	-3199
ྨ	-3200
ྱ	-3201
Ꮩ	-3202
ᒪ	-3203
ᗜ	-3204
ᛉ	-3205
ᛒ	-3206
᠅	-3207
ᤦ	-3208
ᴣ	-3209
ᷗ	-3210
Ḵ	-3211
ṑ	-3212
ṕ	-3213
ậ	-3214
ắ	-3215
ữ	-3216
Ἒ	-3217
Ἧ	-3218
Ὗ	-3219
ᾂ	-3220
ᾡ	-3221
Ὲ	-3222
ῌ	-3223
‍	-3224
⁁	-3225
⁓	-3226
⁘	-3227
ↁ	-3228
ↂ	-3229
ↇ	-3230
ↈ	-3231
∑	-3232
∜	-3233
∧	-3234
∺	-3235
∽	-3236
≅	-3237
≏	-3238
⊞	-3239
⊥	-3240
⋂	-3241
⌶	-3242
┚	-3243
┷	-3244
╋	-3245
╠	-3246
╣	-3247
▔	-3248
▭	-3249
▱	-3250
▲	-3251
☓	-3252
♆	-3253
⚎	-3254
⚪	-3255
⚬	-3256
⛢	-3257
✙	-3258
❯	-3259
⟂	-3260
⦻	-3261
⬯	-3262
ⲁ	-3263
Ⲓ	-3264
ⲛ	-3265
⳨	-3266
⸧	-3267
⸲	-3268
⸴	-3269
エ	-3270
ガ	-3271
ト	-3272
ン	-3273
ー	-3274
丕	-3275
丘	-3276
丞	-3277
両	-3278
久	-3279
亶	-3280
今	-3281
伏	-3282
修	-3283
備	-3284
僕	-3285
共	-3286
具	-3287
冤	-3288
凡	-3289
初	-3290
制	-3291
功	-3292
勢	-3293
勤	-3294
化	-3295
匯	-3296
反	-3297
叭	-3298
吉	-3299
吽	-3300
告	-3301
呢	-3302
呼	-3303
唵	-3304
啟	-3305
單	-3306
嗚	-3307
噲	-3308
嚤	-3309
回	-3310
固	-3311
坡	-3312
垣	-3313
垻	-3314
基	-3315
報	-3316
塔	-3317
壓	-3318
壤	-3319
壩	-3320
壽	-3321
夜	-3322
妙	-3323
姓	-3324
威	-3325
宇	-3326
宏	-3327
宗	-3328
宮	-3329
寇	-3330
實	-3331
寶	-3332
射	-3333
尾	-3334
居	-3335
峰	-3336
幾	-3337
庄	-3338
度	-3339
庶	-3340
康	-3341
廉	-3342
廷	-3343
建	-3344
廿	-3345
式	-3346
弓	-3347
弟	-3348
忠	-3349
忻	-3350
恆	-3351
恒	-3352
悉	-3353
患	-3354
悲	-3355
惠	-3356
惡	-3357
惹	-3358
慈	-3359
慶	-3360
憲	-3361
戀	-3362
我	-3363
戶	-3364
折	-3365
拉	-3366
指	-3367
捷	-3368
接	-3369
損	-3370
撫	-3371
救	-3372
敝	-3373
散	-3374
數	-3375
施	-3376
旋	-3377
昆	-3378
暗	-3379
最	-3380
會	-3381
束	-3382
柔	-3383
柳	-3384
柴	-3385
校	-3386
案	-3387
條	-3388
棖	-3389
楊	-3390
業	-3391
楷	-3392
榕	-3393
樣	-3394
歐	-3395
止	-3396
歲	-3397
死	-3398
殊	-3399
殺	-3400
比	-3401
池	-3402
汲	-3403
沉	-3404
洛	-3405
津	-3406
淨	-3407
淳	-3408
淸	-3409
湯	-3410
溫	-3411
滄	-3412
滋	-3413
燕	-3414
營	-3415
爭	-3416
爾	-3417
牟	-3418
狄	-3419
玀	-3420
琁	-3421
用	-3422
甫	-3423
甸	-3424
當	-3425
疾	-3426
的	-3427
皮	-3428
盛	-3429
盡	-3430
直	-3431
真	-3432
破	-3433
社	-3434
祥	-3435
私	-3436
科	-3437
程	-3438
種	-3439
米	-3440
約	-3441
納	-3442
素	-3443
緯	-3444
繫	-3445
罪	-3446
羽	-3447
翁	-3448
耳	-3449
聞	-3450
職	-3451
肅	-3452
興	-3453
般	-3454
芝	-3455
范	-3456
茢	-3457
荀	-3458
荒	-3459
莊	-3460
莫	-3461
落	-3462
著	-3463
葢	-3464
蒙	-3465
蓋	-3466
蓮	-3467
蕭	-3468
藥	-3469
蘭	-3470
虔	-3471
蝻	-3472
蠻	-3473
衣	-3474
袁	-3475
裏	-3476
製	-3477
視	-3478
課	-3479
請	-3480
諭	-3481
謊	-3482
譜	-3483
讓	-3484
谷	-3485
豐	-3486
貢	-3487
貨	-3488
賈	-3489
賊	-3490
賓	-3491
起	-3492
趙	-3493
蹄	-3494
軍	-3495
輯	-3496
辦	-3497
農	-3498
迷	-3499
連	-3500
逸	-3501
遂	-3502
過	-3503
遜	-3504
邊	-3505
邱	-3506
郢	-3507
郭	-3508
鄔	-3509
醫	-3510
量	-3511
鑪	-3512
閂	-3513
閔	-3514
防	-3515
陋	-3516
院	-3517
隆	-3518
隨	-3519
雚	-3520
雷	-3521
靈	-3522
領	-3523
願	-3524
餉	-3525
香	-3526
駐	-3527
駟	-3528
騎	-3529
驛	-3530
鯉	-3531
鷄	-3532
齋	-3533
龜	-3534
ꝏ	-3535
Ꝑ	-3536
Ꝺ	-3537
Ꝼ	-3538
𐅵	-3539
𓎆	-3540
	-3541
Ė	-3542
Ħ	-3543
Ń	-3544
Ň	-3545
Ŕ	-3546
ŕ	-3547
Ů	-3548
ƀ	-3549
Ɛ	-3550
Ƨ	-3551
Ƶ	-3552
Ǐ	-3553
ǒ	-3554
ǥ	-3555
Ǵ	-3556
ǹ	-3557
Ț	-3558
ʅ	-3559
ʘ	-3560
˭	-3561
˳	-3562
̌	-3563
̢	-3564
̾	-3565
ͅ	-3566
ͮ	-3567
Ϊ	-3568
ϗ	-3569
ϟ	-3570
ϥ	-3571
ϯ	-3572
ϻ	-3573
Ј	-3574
Љ	-3575
Њ	-3576
Џ	-3577
Ц	-3578
Ю	-3579
Ѳ	-3580
ѳ	-3581
Ѵ	-3582
ѵ	-3583
ӑ	-3584
ӱ	-3585
Ա	-3586
Զ	-3587
Ն	-3588
բ	-3589
զ	-3590
թ	-3591
խ	-3592
չ	-3593
ս	-3594
օ	-3595
֓	-3596
֚	-3597
֟	-3598
֢	-3599
֦	-3600
֬	-3601
׀	-3602
ױ	-3603
ײ	-3604
،	-3605
آ	-3606
ؤ	-3607
إ	-3608
٢	-3609
٥	-3610
٦	-3611
٧	-3612
ۃ	-3613
ܥ	-3614
ܵ	-3615
ܿ	-3616
ट	-3617
ठ	-3618
ढ	-3619
म	-3620
ल	-3621
़	-3622
ि	-3623
ी	-3624
ཎ	-3625
ཕ	-3626
ཚ	-3627
ཛ	-3628
ཨ	-3629
ཱ	-3630
ཾ	-3631
ྃ	-3632
ྐ	-3633
ྒ	-3634
ྭ	-3635
ྷ	-3636
Ⴤ	-3637
Ꮋ	-3638
ᐯ	-3639
ᐱ	-3640
ᚤ	-3641
ᚩ	-3642
ᚳ	-3643
ᚷ	-3644
ᚺ	-3645
ᚻ	-3646
ᛑ	-3647
ᛖ	-3648
ᛗ	-3649
ᛞ	-3650
ᛦ	-3651
ᴂ	-3652
ḅ	-3653
ḻ	-3654
ḿ	-3655
Ṉ	-3656
Ṓ	-3657
ṥ	-3658
ẃ	-3659
ẉ	-3660
ẋ	-3661
Ẍ	-3662
Ạ	-3663
ả	-3664
ừ	-3665
Ỳ	-3666
Ἲ	-3667
Ἳ	-3668
Ἷ	-3669
Ὂ	-3670
ᾇ	-3671
ᾒ	-3672
ᾓ	-3673
ᾣ	-3674
ᾬ	-3675
ᾭ	-3676
Ὴ	-3677
Ῑ	-3678
ῧ	-3679
Ὺ	-3680
ῲ	-3681
※	-3682
⁔	-3683
⁙	-3684
⁮	-3685
€	-3686
⃨	-3687
℟	-3688
⅁	-3689
⅄	-3690
↙	-3691
↰	-3692
↿	-3693
⇄	-3694
∋	-3695
∨	-3696
∪	-3697
∹	-3698
≍	-3699
≎	-3700
≐	-3701
≚	-3702
≠	-3703
≢	-3704
⊜	-3705
⊝	-3706
⊤	-3707
⋮	-3708
⌗	-3709
⎿	-3710
⏝	-3711
⏟	-3712
⓵	-3713
┗	-3714
┛	-3715
┫	-3716
╺	-3717
▤	-3718
▮	-3719
◬	-3720
☙	-3721
☨	-3722
☰	-3723
☱	-3724
☲	-3725
☳	-3726
☴	-3727
☵	-3728
☶	-3729
☷	-3730
♇	-3731
⚊	-3732
⚋	-3733
⚌	-3734
⚍	-3735
⚏	-3736
⚐	-3737
⚔	-3738
⚫	-3739
⚳	-3740
⚴	-3741
⚵	-3742
⚶	-3743
⛳	-3744
✟	-3745
✡	-3746
➔	-3747
⠁	-3748
⦠	-3749
⦾	-3750
⧧	-3751
⧼	-3752
⨁	-3753
⩀	-3754
⩋	-3755
⩡	-3756
⪥	-3757
⫍	-3758
⫎	-3759
⫛	-3760
⫨	-3761
⫶	-3762
⬆	-3763
ⲕ	-3764
ⲟ	-3765
ⲧ	-3766
Ⲫ	-3767
Ⲯ	-3768
〔	-3769
〕	-3770
ひ	-3771
イ	-3772
カ	-3773
グ	-3774
ジ	-3775
ス	-3776
ゼ	-3777
ソ	-3778
ダ	-3779
チ	-3780
ナ	-3781
パ	-3782
プ	-3783
ベ	-3784
マ	-3785
ャ	-3786
㇀	-3787
㇁	-3788
㇏	-3789
㇐	-3790
㇑	-3791
㇒	-3792
㇔	-3793
㇚	-3794
䷞	-3795
丁	-3796
丸	-3797
乾	-3798
亂	-3799
了	-3800
予	-3801
云	-3802
京	-3803
亭	-3804
什	-3805
仇	-3806
仍	-3807
他	-3808
伸	-3809
伽	-3810
住	-3811
佩	-3812
侃	-3813
侈	-3814
侏	-3815
侗	-3816
依	-3817
侵	-3818
俗	-3819
信	-3820
候	-3821
值	-3822
偃	-3823
假	-3824
偕	-3825
停	-3826
健	-3827
偪	-3828
偶	-3829
傷	-3830
僎	-3831
僚	-3832
儀	-3833
儻	-3834
允	-3835
充	-3836
克	-3837
免	-3838
兒	-3839
兗	-3840
内	-3841
冕	-3842
冶	-3843
冷	-3844
切	-3845
別	-3846
刲	-3847
剋	-3848
剎	-3849
劉	-3850
劍	-3851
助	-3852
勉	-3853
務	-3854
勝	-3855
勸	-3856
勿	-3857
包	-3858
匡	-3859
匿	-3860
卅	-3861
升	-3862
卒	-3863
卞	-3864
卧	-3865
卯	-3866
危	-3867
卹	-3868
厤	-3869
厲	-3870
去	-3871
后	-3872
吠	-3873
否	-3874
味	-3875
呷	-3876
哆	-3877
員	-3878
哨	-3879
哪	-3880
哲	-3881
唫	-3882
喇	-3883
喚	-3884
嘗	-3885
嘴	-3886
器	-3887
圻	-3888
均	-3889
坐	-3890
坭	-3891
域	-3892
堅	-3893
墜	-3894
墩	-3895
墳	-3896
壁	-3897
壬	-3898
壺	-3899
夀	-3900
夕	-3901
夥	-3902
夷	-3903
奕	-3904
奴	-3905
妥	-3906
妹	-3907
妻	-3908
始	-3909
委	-3910
姚	-3911
娶	-3912
嬰	-3913
存	-3914
完	-3915
宓	-3916
室	-3917
宿	-3918
寅	-3919
密	-3920
寉	-3921
富	-3922
寐	-3923
寕	-3924
察	-3925
寰	-3926
寵	-3927
封	-3928
專	-3929
尹	-3930
尺	-3931
層	-3932
屺	-3933
岡	-3934
峻	-3935
崇	-3936
崖	-3937
嶓	-3938
嶲	-3939
巫	-3940
巴	-3941
巽	-3942
帖	-3943
帛	-3944
幵	-3945
并	-3946
幸	-3947
幹	-3948
店	-3949
庭	-3950
庵	-3951
廡	-3952
延	-3953
廾	-3954
弁	-3955
強	-3956
彝	-3957
形	-3958
彭	-3959
待	-3960
後	-3961
徐	-3962
循	-3963
徳	-3964
徵	-3965
徼	-3966
忘	-3967
快	-3968
怒	-3969
性	-3970
怱	-3971
恐	-3972
恕	-3973
恨	-3974
恭	-3975
息	-3976
悟	-3977
悼	-3978
惕	-3979
惟	-3980
愍	-3981
愚	-3982
愛	-3983
感	-3984
態	-3985
慎	-3986
慕	-3987
慧	-3988
懼	-3989
懿	-3990
戈	-3991
戎	-3992
才	-3993
扶	-3994
批	-3995
承	-3996
技	-3997
抗	-3998
抵	-3999
括	-4000
拱	-4001
拷	-4002
按	-4003
振	-4004
捨	-4005
授	-4006
掌	-4007
掣	-4008
措	-4009
插	-4010
換	-4011
揭	-4012
播	-4013
擾	-4014
攝	-4015
收	-4016
攻	-4017
斂	-4018
斃	-4019
斗	-4020
料	-4021
旂	-4022
旅	-4023
旦	-4024
早	-4025
旺	-4026
昇	-4027
星	-4028
映	-4029
昺	-4030
晌	-4031
晚	-4032
曉	-4033
朶	-4034
杜	-4035
松	-4036
析	-4037
果	-4038
柱	-4039
栢	-4040
根	-4041
格	-4042
桂	-4043
梅	-4044
梓	-4045
梢	-4046
棋	-4047
棟	-4048
棹	-4049
楠	-4050
樊	-4051
機	-4052
橫	-4053
欖	-4054
欣	-4055
欬	-4056
歆	-4057
歛	-4058
殤	-4059
毋	-4060
毎	-4061
每	-4062
求	-4063
汎	-4064
汝	-4065
汪	-4066
沅	-4067
沖	-4068
沛	-4069
沿	-4070
波	-4071
泥	-4072
洗	-4073
洞	-4074
洪	-4075
洱	-4076
洲	-4077
活	-4078
洽	-4079
派	-4080
消	-4081
淫	-4082
深	-4083
淵	-4084
減	-4085
渠	-4086
港	-4087
渴	-4088
游	-4089
渾	-4090
湘	-4091
溝	-4092
